#ifndef KOOGU_NARW_H
#define KOOGU_NARW_H

#ifdef __has_attribute
#define HAVE_ATTRIBUTE(x) __has_attribute(x)
#else
#define HAVE_ATTRIBUTE(x) 0
#endif
#if HAVE_ATTRIBUTE(aligned) || (defined(__GNUC__) && !defined(__clang__))
#define DATA_ALIGN_ATTRIBUTE __attribute__((aligned(4)))
#else
#define DATA_ALIGN_ATTRIBUTE
#endif

const unsigned int koogu_narw_len = 32044;
const unsigned char koogu_narw[] DATA_ALIGN_ATTRIBUTE = {
 0x1c, 0x00, 0x00, 0x00, 0x54, 0x46, 0x4c, 0x33, 0x14, 0x00, 0x20, 0x00,
  0x1c, 0x00, 0x18, 0x00, 0x14, 0x00, 0x10, 0x00, 0x0c, 0x00, 0x00, 0x00,
  0x08, 0x00, 0x04, 0x00, 0x14, 0x00, 0x00, 0x00, 0x1c, 0x00, 0x00, 0x00,
  0x1c, 0x00, 0x00, 0x00, 0x74, 0x00, 0x00, 0x00, 0x84, 0x3c, 0x00, 0x00,
  0x94, 0x3c, 0x00, 0x00, 0x4c, 0x7c, 0x00, 0x00, 0x03, 0x00, 0x00, 0x00,
  0x00, 0x00, 0x00, 0x00, 0x02, 0x00, 0x00, 0x00, 0x34, 0x00, 0x00, 0x00,
  0x04, 0x00, 0x00, 0x00, 0xdc, 0xff, 0xff, 0xff, 0x52, 0x00, 0x00, 0x00,
  0x04, 0x00, 0x00, 0x00, 0x13, 0x00, 0x00, 0x00, 0x43, 0x4f, 0x4e, 0x56,
  0x45, 0x52, 0x53, 0x49, 0x4f, 0x4e, 0x5f, 0x4d, 0x45, 0x54, 0x41, 0x44,
  0x41, 0x54, 0x41, 0x00, 0x08, 0x00, 0x0c, 0x00, 0x08, 0x00, 0x04, 0x00,
  0x08, 0x00, 0x00, 0x00, 0x51, 0x00, 0x00, 0x00, 0x04, 0x00, 0x00, 0x00,
  0x13, 0x00, 0x00, 0x00, 0x6d, 0x69, 0x6e, 0x5f, 0x72, 0x75, 0x6e, 0x74,
  0x69, 0x6d, 0x65, 0x5f, 0x76, 0x65, 0x72, 0x73, 0x69, 0x6f, 0x6e, 0x00,
  0x53, 0x00, 0x00, 0x00, 0x0c, 0x3c, 0x00, 0x00, 0x04, 0x3c, 0x00, 0x00,
  0xec, 0x3b, 0x00, 0x00, 0x5c, 0x3b, 0x00, 0x00, 0x0c, 0x3b, 0x00, 0x00,
  0xbc, 0x38, 0x00, 0x00, 0xa4, 0x38, 0x00, 0x00, 0x14, 0x34, 0x00, 0x00,
  0xbc, 0x33, 0x00, 0x00, 0x9c, 0x2e, 0x00, 0x00, 0x7c, 0x29, 0x00, 0x00,
  0x1c, 0x29, 0x00, 0x00, 0xcc, 0x22, 0x00, 0x00, 0x1c, 0x1d, 0x00, 0x00,
  0xb4, 0x1c, 0x00, 0x00, 0x14, 0x15, 0x00, 0x00, 0xd4, 0x0e, 0x00, 0x00,
  0xc0, 0x0e, 0x00, 0x00, 0xa8, 0x0e, 0x00, 0x00, 0x94, 0x0e, 0x00, 0x00,
  0x80, 0x0e, 0x00, 0x00, 0x30, 0x0e, 0x00, 0x00, 0xe0, 0x0d, 0x00, 0x00,
  0x90, 0x0d, 0x00, 0x00, 0x38, 0x0d, 0x00, 0x00, 0xe0, 0x0c, 0x00, 0x00,
  0x80, 0x0c, 0x00, 0x00, 0x20, 0x0c, 0x00, 0x00, 0xc0, 0x0b, 0x00, 0x00,
  0x60, 0x0b, 0x00, 0x00, 0xf8, 0x0a, 0x00, 0x00, 0x90, 0x0a, 0x00, 0x00,
  0x40, 0x0a, 0x00, 0x00, 0xd8, 0x09, 0x00, 0x00, 0x70, 0x09, 0x00, 0x00,
  0x00, 0x09, 0x00, 0x00, 0x90, 0x08, 0x00, 0x00, 0x80, 0x02, 0x00, 0x00,
  0x28, 0x02, 0x00, 0x00, 0xd0, 0x01, 0x00, 0x00, 0xc8, 0x01, 0x00, 0x00,
  0xc0, 0x01, 0x00, 0x00, 0xb8, 0x01, 0x00, 0x00, 0xb0, 0x01, 0x00, 0x00,
  0xa8, 0x01, 0x00, 0x00, 0xa0, 0x01, 0x00, 0x00, 0x98, 0x01, 0x00, 0x00,
  0x90, 0x01, 0x00, 0x00, 0x88, 0x01, 0x00, 0x00, 0x80, 0x01, 0x00, 0x00,
  0x78, 0x01, 0x00, 0x00, 0x70, 0x01, 0x00, 0x00, 0x68, 0x01, 0x00, 0x00,
  0x60, 0x01, 0x00, 0x00, 0x58, 0x01, 0x00, 0x00, 0x50, 0x01, 0x00, 0x00,
  0x48, 0x01, 0x00, 0x00, 0x40, 0x01, 0x00, 0x00, 0x38, 0x01, 0x00, 0x00,
  0x30, 0x01, 0x00, 0x00, 0x28, 0x01, 0x00, 0x00, 0x20, 0x01, 0x00, 0x00,
  0x18, 0x01, 0x00, 0x00, 0x10, 0x01, 0x00, 0x00, 0x08, 0x01, 0x00, 0x00,
  0x00, 0x01, 0x00, 0x00, 0xf8, 0x00, 0x00, 0x00, 0xf0, 0x00, 0x00, 0x00,
  0xe8, 0x00, 0x00, 0x00, 0xe0, 0x00, 0x00, 0x00, 0xd8, 0x00, 0x00, 0x00,
  0xd0, 0x00, 0x00, 0x00, 0xc8, 0x00, 0x00, 0x00, 0xc0, 0x00, 0x00, 0x00,
  0xb8, 0x00, 0x00, 0x00, 0xb0, 0x00, 0x00, 0x00, 0xa8, 0x00, 0x00, 0x00,
  0xa0, 0x00, 0x00, 0x00, 0x98, 0x00, 0x00, 0x00, 0x90, 0x00, 0x00, 0x00,
  0x88, 0x00, 0x00, 0x00, 0x68, 0x00, 0x00, 0x00, 0x04, 0x00, 0x00, 0x00,
  0x2e, 0xbd, 0xff, 0xff, 0x04, 0x00, 0x00, 0x00, 0x54, 0x00, 0x00, 0x00,
  0x0c, 0x00, 0x00, 0x00, 0x08, 0x00, 0x0e, 0x00, 0x08, 0x00, 0x04, 0x00,
  0x08, 0x00, 0x00, 0x00, 0x10, 0x00, 0x00, 0x00, 0x24, 0x00, 0x00, 0x00,
  0x00, 0x00, 0x06, 0x00, 0x08, 0x00, 0x04, 0x00, 0x06, 0x00, 0x00, 0x00,
  0x04, 0x00, 0x00, 0x00, 0x00, 0x00, 0x00, 0x00, 0x00, 0x00, 0x0a, 0x00,
  0x10, 0x00, 0x0c, 0x00, 0x08, 0x00, 0x04, 0x00, 0x0a, 0x00, 0x00, 0x00,
  0x03, 0x00, 0x00, 0x00, 0x02, 0x00, 0x00, 0x00, 0x04, 0x00, 0x00, 0x00,
  0x06, 0x00, 0x00, 0x00, 0x32, 0x2e, 0x31, 0x32, 0x2e, 0x30, 0x00, 0x00,
  0x8e, 0xbd, 0xff, 0xff, 0x04, 0x00, 0x00, 0x00, 0x10, 0x00, 0x00, 0x00,
  0x31, 0x2e, 0x31, 0x34, 0x2e, 0x30, 0x00, 0x00, 0x00, 0x00, 0x00, 0x00,
  0x00, 0x00, 0x00, 0x00, 0x68, 0x85, 0xff, 0xff, 0x6c, 0x85, 0xff, 0xff,
  0x70, 0x85, 0xff, 0xff, 0x74, 0x85, 0xff, 0xff, 0x78, 0x85, 0xff, 0xff,
  0x7c, 0x85, 0xff, 0xff, 0x80, 0x85, 0xff, 0xff, 0x84, 0x85, 0xff, 0xff,
  0x88, 0x85, 0xff, 0xff, 0x8c, 0x85, 0xff, 0xff, 0x90, 0x85, 0xff, 0xff,
  0x94, 0x85, 0xff, 0xff, 0x98, 0x85, 0xff, 0xff, 0x9c, 0x85, 0xff, 0xff,
  0xa0, 0x85, 0xff, 0xff, 0xa4, 0x85, 0xff, 0xff, 0xa8, 0x85, 0xff, 0xff,
  0xac, 0x85, 0xff, 0xff, 0xb0, 0x85, 0xff, 0xff, 0xb4, 0x85, 0xff, 0xff,
  0xb8, 0x85, 0xff, 0xff, 0xbc, 0x85, 0xff, 0xff, 0xc0, 0x85, 0xff, 0xff,
  0xc4, 0x85, 0xff, 0xff, 0xc8, 0x85, 0xff, 0xff, 0xcc, 0x85, 0xff, 0xff,
  0xd0, 0x85, 0xff, 0xff, 0xd4, 0x85, 0xff, 0xff, 0xd8, 0x85, 0xff, 0xff,
  0xdc, 0x85, 0xff, 0xff, 0xe0, 0x85, 0xff, 0xff, 0xe4, 0x85, 0xff, 0xff,
  0xe8, 0x85, 0xff, 0xff, 0xec, 0x85, 0xff, 0xff, 0xf0, 0x85, 0xff, 0xff,
  0xf4, 0x85, 0xff, 0xff, 0xf8, 0x85, 0xff, 0xff, 0xfc, 0x85, 0xff, 0xff,
  0x00, 0x86, 0xff, 0xff, 0x04, 0x86, 0xff, 0xff, 0x08, 0x86, 0xff, 0xff,
  0x4e, 0xbe, 0xff, 0xff, 0x04, 0x00, 0x00, 0x00, 0x48, 0x00, 0x00, 0x00,
  0x85, 0x3c, 0x58, 0x41, 0xf3, 0x89, 0x79, 0x40, 0xb1, 0xa8, 0xab, 0x40,
  0x15, 0x59, 0x49, 0x40, 0x3e, 0x8b, 0x69, 0x40, 0x6a, 0xe2, 0xc3, 0x40,
  0x8d, 0xea, 0x8a, 0x40, 0x12, 0x62, 0xad, 0x40, 0x57, 0x26, 0xbf, 0x40,
  0x05, 0x21, 0x87, 0x40, 0x8b, 0xed, 0x20, 0x41, 0x56, 0x4f, 0x9d, 0x40,
  0x05, 0x75, 0x6e, 0x40, 0x35, 0xac, 0xa5, 0x40, 0x90, 0xa9, 0xbe, 0x40,
  0x12, 0xa3, 0x9f, 0x40, 0xe5, 0xb9, 0x01, 0x3f, 0x97, 0x3a, 0x03, 0x3f,
  0xa2, 0xbe, 0xff, 0xff, 0x04, 0x00, 0x00, 0x00, 0x48, 0x00, 0x00, 0x00,
  0x0a, 0x74, 0x15, 0xc0, 0x02, 0xa5, 0xa4, 0x3e, 0x5e, 0x24, 0x96, 0x3e,
  0x57, 0x27, 0x97, 0xc0, 0xa4, 0xa5, 0x84, 0x40, 0x0c, 0xc3, 0xd3, 0xbe,
  0x91, 0xda, 0x07, 0xc0, 0xf8, 0x54, 0x57, 0x3d, 0x38, 0x6c, 0x42, 0xbf,
  0xfe, 0x6f, 0x78, 0xc0, 0x45, 0xf7, 0xeb, 0xbe, 0x15, 0xd2, 0x4b, 0xc0,
  0xc4, 0x18, 0x45, 0x40, 0xe0, 0x94, 0x58, 0xbd, 0xe2, 0xa1, 0x0a, 0xc0,
  0x65, 0x1e, 0xab, 0xbf, 0xa4, 0x5b, 0x93, 0x3e, 0x89, 0xfd, 0xa1, 0xbe,
  0xf6, 0xbe, 0xff, 0xff, 0x04, 0x00, 0x00, 0x00, 0x00, 0x06, 0x00, 0x00,
  0xf1, 0xb3, 0xc3, 0xbe, 0xc6, 0x21, 0x99, 0x3e, 0x24, 0x1f, 0xc0, 0xbe,
  0xe7, 0x6e, 0x93, 0xbe, 0xd3, 0x2b, 0x5d, 0x3e, 0x5b, 0xef, 0x06, 0x3f,
  0xed, 0x54, 0x26, 0xbd, 0x6b, 0x2b, 0x97, 0xbe, 0x61, 0x4e, 0x1f, 0xbd,
  0x22, 0x56, 0x51, 0x3e, 0x7c, 0x95, 0x79, 0x3e, 0xf5, 0x64, 0x91, 0xbe,
  0x28, 0x3b, 0x42, 0xbf, 0xa4, 0xea, 0x24, 0xbd, 0x04, 0xf3, 0xad, 0xbe,
  0x65, 0xd2, 0x84, 0xbe, 0x43, 0x53, 0x54, 0x3e, 0x9a, 0xb6, 0xb2, 0xbe,
  0xe4, 0x78, 0xe0, 0xbe, 0x97, 0x07, 0xf0, 0xbd, 0x69, 0x0d, 0x41, 0x3e,
  0xe3, 0x16, 0xfb, 0xbd, 0x95, 0x46, 0x82, 0x3f, 0xb1, 0x01, 0x84, 0xbf,
  0xd4, 0x5a, 0x0f, 0xbd, 0xc1, 0x7a, 0xb6, 0x3e, 0xee, 0xf8, 0x27, 0x3e,
  0x25, 0x9f, 0x1b, 0x3e, 0xeb, 0x07, 0x24, 0xbd, 0x34, 0xf3, 0xb2, 0x3d,
  0xe8, 0x28, 0xb4, 0xbd, 0x9f, 0x8d, 0xb2, 0x3e, 0xd3, 0x34, 0x01, 0x3f,
  0xa3, 0x3c, 0x06, 0xbe, 0x0f, 0x75, 0xeb, 0x3e, 0x98, 0xaa, 0xd8, 0xbe,
  0x97, 0xf5, 0x43, 0x3e, 0x3a, 0x97, 0x8b, 0xbd, 0x68, 0xbb, 0x1c, 0xbe,
  0xad, 0x7f, 0x95, 0x3e, 0xbb, 0xe2, 0xaf, 0xbe, 0x62, 0xbc, 0x08, 0x3e,
  0xd6, 0x78, 0xef, 0x3e, 0x43, 0x7e, 0x99, 0xbd, 0xe1, 0x91, 0x6a, 0x3e,
  0xe9, 0xd3, 0x94, 0xbd, 0x6d, 0x78, 0x0f, 0x3f, 0xfc, 0x10, 0xcb, 0xbf,
  0x4c, 0xab, 0xfd, 0xbc, 0x8c, 0xbb, 0x17, 0xbf, 0xa1, 0xd2, 0x10, 0xbe,
  0x5d, 0xf8, 0x8b, 0x3d, 0x67, 0x56, 0x44, 0xbd, 0x14, 0xc6, 0xea, 0xbe,
  0x2c, 0xbb, 0x7d, 0xbe, 0x29, 0xac, 0xc7, 0x3c, 0xa0, 0xfe, 0xd2, 0x3e,
  0xea, 0x22, 0x50, 0xbe, 0x03, 0x73, 0x59, 0x3d, 0x2d, 0x0e, 0x12, 0xbd,
  0x6d, 0x92, 0x03, 0x3f, 0xae, 0x02, 0xd6, 0xbe, 0xfb, 0xf7, 0x22, 0x3f,
  0x07, 0x0c, 0xaf, 0x3d, 0xa3, 0xe8, 0x9b, 0xbe, 0x91, 0x92, 0x01, 0x3e,
  0x9d, 0x00, 0xb4, 0x3e, 0xa1, 0x58, 0x1d, 0x3f, 0xfd, 0x8c, 0x14, 0x3f,
  0xea, 0xf5, 0x0e, 0xbe, 0xa2, 0x59, 0x17, 0xbf, 0xdb, 0xff, 0x9e, 0x3f,
  0x73, 0x9e, 0xae, 0xbe, 0x11, 0x19, 0x8e, 0x3c, 0x5a, 0xc5, 0xdd, 0xbe,
  0x27, 0x3b, 0x48, 0xbe, 0x8c, 0x9b, 0x34, 0x3e, 0x13, 0xd7, 0x4c, 0x3d,
  0xc3, 0xe1, 0xe0, 0xbc, 0xb3, 0x5b, 0xa9, 0xbd, 0xb8, 0xf8, 0x26, 0xbd,
  0x05, 0x20, 0xd6, 0x3c, 0xa2, 0xc0, 0xba, 0x3e, 0x64, 0x5d, 0xf3, 0xbe,
  0x04, 0x5b, 0xf5, 0xbe, 0x79, 0x10, 0x2e, 0xbe, 0xff, 0x2b, 0x4b, 0xbe,
  0x32, 0xb0, 0x1c, 0x3e, 0x20, 0x56, 0x32, 0xbe, 0x39, 0x31, 0xbd, 0xbe,
  0xb5, 0x7c, 0x40, 0xbe, 0x13, 0x5c, 0xe3, 0xbe, 0x66, 0xea, 0x05, 0x3e,
  0x37, 0xd6, 0x7e, 0x3e, 0x04, 0xf1, 0x7a, 0x3f, 0x51, 0xdd, 0x7c, 0xbf,
  0xdf, 0xc0, 0x6b, 0xbd, 0x44, 0xfe, 0x5a, 0x3e, 0xbc, 0xa6, 0x84, 0x3d,
  0x38, 0xe7, 0x0a, 0xbf, 0xb8, 0x12, 0x64, 0xbe, 0x27, 0x9c, 0xb4, 0x3e,
  0xd1, 0x82, 0x38, 0x3d, 0xbc, 0xc6, 0xd6, 0xbe, 0x63, 0xe3, 0x1a, 0xbe,
  0x85, 0xee, 0xbc, 0x3d, 0x02, 0x88, 0x36, 0x3e, 0xd7, 0x04, 0x43, 0x3e,
  0xf3, 0x2b, 0xc0, 0xbe, 0x98, 0x0f, 0x3e, 0x3c, 0xa8, 0x50, 0x54, 0xbc,
  0x22, 0xfd, 0xc1, 0x3d, 0xe5, 0x1e, 0x76, 0xbe, 0xc8, 0x59, 0x8a, 0x3e,
  0x93, 0xd8, 0xe4, 0xbe, 0x75, 0x98, 0x32, 0xbf, 0xe9, 0x95, 0x97, 0x3c,
  0x51, 0x22, 0x89, 0x3e, 0xcf, 0x70, 0x56, 0x3f, 0xd1, 0x45, 0x97, 0xbf,
  0x8c, 0x3b, 0x82, 0x3b, 0xe7, 0x07, 0x84, 0xbd, 0x24, 0xfc, 0x0b, 0xbf,
  0x0f, 0x20, 0xfc, 0xbe, 0x59, 0xcc, 0xa0, 0x3e, 0xc5, 0x23, 0xa2, 0x3d,
  0xb6, 0xde, 0xbf, 0xbd, 0x16, 0x37, 0x82, 0xbe, 0xc5, 0x7f, 0x89, 0xbe,
  0x63, 0x4a, 0x8e, 0xbe, 0xc3, 0x3c, 0xb2, 0x3d, 0x3a, 0xd9, 0x8d, 0x3d,
  0x23, 0xa7, 0x30, 0xbf, 0xc4, 0x79, 0x06, 0x3d, 0x9d, 0x03, 0x48, 0x3e,
  0x72, 0xe5, 0xb2, 0x3e, 0x57, 0x0a, 0x99, 0x3d, 0x72, 0x19, 0x64, 0xbe,
  0x87, 0x39, 0x8c, 0xbe, 0x24, 0x53, 0xff, 0x3d, 0x6c, 0xb0, 0x62, 0xbe,
  0x56, 0xc5, 0xd5, 0x3e, 0x09, 0x0a, 0x4e, 0x3f, 0x3b, 0x69, 0x9d, 0xbf,
  0x67, 0x98, 0x66, 0x3e, 0xa1, 0x4d, 0x65, 0x3e, 0x54, 0x5b, 0x05, 0x3e,
  0x80, 0x04, 0x99, 0x3b, 0xc3, 0x42, 0x84, 0x3c, 0xf4, 0xa1, 0x81, 0x3e,
  0xb9, 0xfa, 0x4f, 0x3e, 0x2c, 0xf8, 0xa7, 0xbe, 0xec, 0x7d, 0x90, 0x3e,
  0xff, 0x4a, 0x9f, 0x3e, 0xe6, 0x97, 0xa7, 0x3e, 0xd7, 0xc6, 0x9f, 0x3e,
  0x24, 0x3a, 0xac, 0xbe, 0xdb, 0x3c, 0x87, 0xbc, 0x97, 0x2c, 0x15, 0xbe,
  0x7e, 0x76, 0xfc, 0xbd, 0xf2, 0xcf, 0xcf, 0xbe, 0x52, 0x0e, 0xb1, 0xbe,
  0x6f, 0xf1, 0xb4, 0x3d, 0x20, 0xae, 0xd9, 0xbe, 0xc7, 0x50, 0xb2, 0x3d,
  0x90, 0x85, 0xce, 0x3d, 0xb3, 0xc1, 0x88, 0x3f, 0x2f, 0xea, 0xb7, 0xbf,
  0xf8, 0x23, 0x9a, 0x3e, 0x47, 0x00, 0xc7, 0xbd, 0x89, 0xcf, 0x64, 0x3e,
  0x5e, 0xbb, 0x5e, 0x3e, 0xee, 0xda, 0xb9, 0x3d, 0xde, 0xda, 0x0b, 0xbf,
  0x1a, 0x83, 0x94, 0x3d, 0xd5, 0x2f, 0x88, 0xbe, 0x7a, 0xdb, 0x58, 0x3e,
  0x3e, 0x88, 0x91, 0x3d, 0x70, 0xe2, 0xc1, 0xbc, 0xae, 0x32, 0x82, 0x3e,
  0xb1, 0xb2, 0xe9, 0x3e, 0x26, 0x0d, 0xa9, 0xbe, 0xf6, 0xd7, 0x3e, 0x3e,
  0x96, 0xc4, 0xe8, 0xbd, 0x60, 0x97, 0x97, 0x3e, 0xe5, 0xc6, 0x81, 0x3e,
  0xb9, 0xdc, 0x85, 0x3e, 0x42, 0x28, 0x80, 0x3d, 0x93, 0x0d, 0x65, 0xbe,
  0xf3, 0x8a, 0xe8, 0xbd, 0xc0, 0xb1, 0x2d, 0xbf, 0xb7, 0x2a, 0xaf, 0x3f,
  0x24, 0x7b, 0x00, 0xbe, 0x5b, 0xa2, 0xbb, 0xbe, 0x02, 0x12, 0x8c, 0xbd,
  0x52, 0xf7, 0x14, 0xbe, 0x1f, 0x48, 0x6e, 0xbe, 0xf9, 0x33, 0x17, 0xbf,
  0xc1, 0xca, 0x90, 0xbd, 0x69, 0xb4, 0x1e, 0x3d, 0x10, 0xce, 0xa8, 0x3e,
  0xab, 0x3e, 0x44, 0x3d, 0xf7, 0x22, 0xf8, 0xbe, 0x68, 0x20, 0x43, 0xbe,
  0x12, 0xf7, 0xa1, 0x3e, 0xe9, 0x3b, 0xaa, 0xbe, 0x2d, 0xcf, 0xc5, 0x3e,
  0x42, 0x07, 0x34, 0x3e, 0xde, 0x2c, 0x70, 0x3c, 0x67, 0xce, 0x30, 0xbc,
  0x77, 0x6e, 0xc8, 0x3e, 0x90, 0x32, 0x2c, 0x3f, 0x65, 0x23, 0xd9, 0x3d,
  0x96, 0x19, 0x81, 0xbd, 0x39, 0x80, 0xc1, 0xbe, 0xb1, 0x09, 0x96, 0x3f,
  0x2b, 0x0b, 0x15, 0x3e, 0x90, 0x78, 0xa3, 0xbd, 0xc4, 0x03, 0x07, 0x3f,
  0xba, 0xf0, 0x70, 0x3e, 0xd7, 0xda, 0xe0, 0xbe, 0x35, 0xb4, 0x3a, 0xbe,
  0x17, 0x4e, 0xe9, 0xbd, 0xaf, 0x98, 0xd5, 0x3d, 0x4e, 0x9a, 0x4c, 0x3e,
  0xee, 0x56, 0x5d, 0xbe, 0xd9, 0xd5, 0x5a, 0x3e, 0x64, 0x50, 0x8f, 0x3e,
  0x6d, 0x85, 0x2c, 0x3e, 0x19, 0x76, 0x89, 0xbe, 0x65, 0xcd, 0xa3, 0x3b,
  0x23, 0x25, 0x33, 0xbe, 0xf7, 0x1a, 0x96, 0x3e, 0x4a, 0x31, 0x9b, 0x3e,
  0x88, 0x57, 0x9c, 0xbc, 0xc2, 0xec, 0x8b, 0x3d, 0x1f, 0xdf, 0x83, 0x3c,
  0x58, 0x86, 0x82, 0xbe, 0x08, 0x14, 0x50, 0xbf, 0x8d, 0xb3, 0x9d, 0x3f,
  0xb5, 0x5f, 0xa2, 0xbe, 0x2c, 0xb6, 0xa0, 0x3d, 0x3e, 0xe9, 0xf5, 0xbc,
  0xe7, 0x7f, 0x27, 0xbc, 0x23, 0x94, 0x89, 0xbe, 0xe5, 0xf8, 0x23, 0xbf,
  0x2f, 0x71, 0x55, 0xbd, 0xef, 0x53, 0x73, 0x3e, 0x47, 0x1b, 0x30, 0x3b,
  0xe2, 0x29, 0xff, 0xbd, 0x91, 0xf2, 0x5e, 0xbe, 0x20, 0xbb, 0x50, 0xbd,
  0x8f, 0xc2, 0x8b, 0x3e, 0xfe, 0xfa, 0x54, 0xbe, 0xc5, 0x00, 0xd3, 0xbd,
  0xcc, 0x76, 0x3a, 0xbe, 0x6d, 0xf7, 0x24, 0x3d, 0x92, 0x07, 0x86, 0xbe,
  0xdb, 0x03, 0x44, 0xbe, 0x6a, 0xd9, 0x69, 0x3e, 0x84, 0xfb, 0xce, 0xbd,
  0x1f, 0x4b, 0x3b, 0x3e, 0x23, 0xc9, 0xc3, 0xbe, 0xc6, 0xbc, 0xaf, 0x3f,
  0x62, 0x22, 0x90, 0xbe, 0x5d, 0x01, 0x0c, 0x3f, 0xba, 0x83, 0xee, 0xbe,
  0xe3, 0x95, 0x88, 0xbe, 0xf5, 0x2d, 0x34, 0xbd, 0x7b, 0x5c, 0x8a, 0x3e,
  0xbb, 0x5f, 0x7b, 0xbe, 0xad, 0x52, 0x1e, 0x3e, 0x30, 0x1c, 0xea, 0x3d,
  0x47, 0x03, 0x9d, 0xbe, 0xf0, 0xd7, 0x02, 0xbd, 0xb8, 0x13, 0x9c, 0x3a,
  0xb6, 0xfa, 0x66, 0x3e, 0x79, 0x8b, 0x3e, 0x3d, 0xd3, 0x60, 0x0f, 0xbe,
  0x3c, 0x43, 0x04, 0xbd, 0x57, 0xc5, 0xdf, 0xbe, 0x8c, 0x2e, 0x29, 0xbe,
  0x61, 0xec, 0x4f, 0x3d, 0x5d, 0xb3, 0xd5, 0x3c, 0x76, 0x1d, 0xfa, 0x3d,
  0x32, 0xd5, 0xd1, 0x3e, 0x1a, 0x66, 0x22, 0x3f, 0xab, 0x5b, 0xb3, 0xbf,
  0x3a, 0x55, 0xac, 0xbc, 0x39, 0xea, 0xff, 0xbd, 0xd2, 0xb5, 0x03, 0x3e,
  0x94, 0x37, 0xf7, 0x3e, 0xa3, 0xda, 0x9c, 0xbd, 0x6c, 0xda, 0xad, 0xbe,
  0xe4, 0x20, 0x1a, 0xbc, 0x86, 0x77, 0x02, 0x3f, 0xa4, 0x8f, 0x15, 0xbd,
  0x35, 0xa3, 0xf1, 0x3b, 0x33, 0x0c, 0x86, 0x3a, 0xd1, 0xb8, 0x9b, 0xbc,
  0x45, 0x52, 0xee, 0x3e, 0xc6, 0x7f, 0xaf, 0xbe, 0x55, 0x7f, 0xb7, 0x3e,
  0x46, 0x03, 0x64, 0xbe, 0xfe, 0x67, 0xb9, 0x3b, 0x5e, 0xc4, 0xb6, 0x3e,
  0x40, 0xbc, 0x93, 0x3e, 0x4c, 0x47, 0x90, 0x3e, 0x0a, 0x2c, 0xc3, 0x3e,
  0x3d, 0x4d, 0x0b, 0xbe, 0x68, 0x19, 0x49, 0xbf, 0x14, 0xee, 0x58, 0x3f,
  0xbb, 0x18, 0x8f, 0x3d, 0x85, 0x0f, 0xa0, 0xbe, 0xde, 0xd0, 0xc7, 0x3e,
  0xd0, 0x45, 0xb8, 0x3d, 0xb5, 0x3f, 0x8e, 0xbe, 0xeb, 0xb0, 0x1a, 0xbe,
  0xe7, 0x8d, 0x75, 0xbd, 0xe3, 0x48, 0xb9, 0x3e, 0x41, 0xdd, 0x24, 0x3e,
  0x8b, 0xea, 0xe0, 0x3e, 0x32, 0x94, 0x16, 0xbe, 0xde, 0x99, 0x44, 0x3e,
  0xdc, 0x1d, 0xf2, 0xbc, 0xf7, 0xff, 0xf6, 0xbe, 0xb3, 0x8e, 0xeb, 0x3e,
  0xe8, 0xae, 0x0f, 0x3e, 0xd7, 0xc0, 0x9b, 0xbe, 0x88, 0x6f, 0x22, 0xbd,
  0xca, 0xbf, 0xf4, 0xbd, 0x1a, 0x43, 0xcb, 0x3d, 0x27, 0xc1, 0x6e, 0xbc,
  0x5f, 0x8d, 0xa2, 0xbd, 0x4a, 0x9c, 0x87, 0xbf, 0xaf, 0x19, 0xa9, 0x3f,
  0xfa, 0xa9, 0xa7, 0x3d, 0xc8, 0x80, 0x95, 0x3d, 0x5b, 0xc4, 0x42, 0x3f,
  0x51, 0x5a, 0x1a, 0x3f, 0x3a, 0x03, 0xc6, 0xbc, 0x96, 0x83, 0xe1, 0xbe,
  0xa7, 0x0f, 0x7b, 0xbd, 0xca, 0xe9, 0xa6, 0x3e, 0x0b, 0x78, 0xfd, 0x3e,
  0xd2, 0x6e, 0x66, 0xbe, 0x57, 0x18, 0x6a, 0x3e, 0x96, 0xe7, 0xa0, 0x3c,
  0x5c, 0x37, 0xa0, 0x3e, 0x65, 0x0b, 0xd6, 0xbe, 0xa7, 0x26, 0xb9, 0x3e,
  0x67, 0xff, 0x52, 0x3d, 0x3d, 0x44, 0x85, 0xbd, 0x5f, 0x3e, 0xac, 0x3e,
  0xa9, 0x0f, 0xe8, 0x3d, 0x03, 0xeb, 0xd6, 0x3e, 0x65, 0x4f, 0x97, 0x3e,
  0x9a, 0xba, 0x6f, 0xbe, 0x5f, 0x50, 0x49, 0xbf, 0xda, 0x6d, 0x83, 0x3f,
  0xdf, 0x34, 0x76, 0xbe, 0xc5, 0xfb, 0xec, 0x3e, 0x10, 0x5f, 0x91, 0x3d,
  0x8c, 0xa5, 0x93, 0xbe, 0xa2, 0xfa, 0xfc, 0x3d, 0xb5, 0xf5, 0x04, 0xbe,
  0x9c, 0xee, 0x13, 0xbd, 0xdb, 0xd8, 0xef, 0x3c, 0x71, 0x54, 0x49, 0xbd,
  0xf4, 0x64, 0xb6, 0xbe, 0xa2, 0xa8, 0xcb, 0x3e, 0x37, 0xc0, 0x7f, 0x3e,
  0x28, 0x82, 0xd6, 0x3c, 0x2c, 0xbb, 0xaf, 0x3e, 0x91, 0xf8, 0x09, 0x3e,
  0x23, 0x9b, 0x80, 0x3d, 0xa6, 0x1c, 0x80, 0x3e, 0x3f, 0xc7, 0x82, 0x3e,
  0xc0, 0x90, 0xe3, 0xbe, 0x9a, 0x16, 0x0f, 0xbf, 0xd7, 0xee, 0xce, 0xbe,
  0x26, 0x72, 0xb1, 0x3e, 0xa8, 0x46, 0x79, 0x3f, 0xc9, 0x79, 0xa5, 0xbf,
  0x02, 0xc5, 0xff, 0xff, 0x04, 0x00, 0x00, 0x00, 0x60, 0x00, 0x00, 0x00,
  0x2d, 0x04, 0x04, 0x40, 0xa7, 0x32, 0xbe, 0x3f, 0xcd, 0x79, 0xba, 0x3f,
  0x2f, 0xfb, 0xce, 0x3f, 0xe9, 0x39, 0x25, 0x40, 0xbb, 0xa7, 0xbc, 0x3f,
  0x7b, 0x1f, 0x17, 0x40, 0xbd, 0x56, 0xaf, 0x3f, 0x8b, 0x09, 0x0a, 0x40,
  0x78, 0x57, 0xd3, 0x3f, 0x0c, 0xdd, 0xdb, 0x3f, 0x27, 0x0e, 0x04, 0x40,
  0xe5, 0x3e, 0xc6, 0x3f, 0x96, 0xb0, 0xd4, 0x3f, 0xed, 0x46, 0x0f, 0x40,
  0x2d, 0x8c, 0xa4, 0x3f, 0x0d, 0x40, 0x99, 0x3f, 0x58, 0xf6, 0x97, 0x3f,
  0x91, 0x88, 0x20, 0x40, 0x2d, 0x5b, 0x1e, 0x40, 0x83, 0x36, 0x95, 0x3f,
  0xb2, 0x87, 0xd2, 0x3f, 0xbf, 0x6c, 0x40, 0x3e, 0x61, 0xc2, 0x12, 0x3e,
  0x6e, 0xc5, 0xff, 0xff, 0x04, 0x00, 0x00, 0x00, 0x60, 0x00, 0x00, 0x00,
  0x1f, 0xb9, 0xa0, 0x3f, 0x7c, 0x05, 0x93, 0x3e, 0x21, 0x90, 0x39, 0x3f,
  0xfc, 0x79, 0xa0, 0x3f, 0xb0, 0xe3, 0x11, 0x3e, 0x4e, 0xcb, 0xaf, 0xbf,
  0xbc, 0x77, 0xc1, 0x3d, 0xb6, 0xa0, 0x85, 0x3f, 0xb2, 0xf3, 0x63, 0x3f,
  0x87, 0x90, 0x49, 0x3f, 0xc8, 0x8a, 0x58, 0xbd, 0x8c, 0x0e, 0x15, 0x3f,
  0xbd, 0xf6, 0xee, 0x3e, 0x7a, 0x2c, 0x60, 0x3f, 0xce, 0xf8, 0x0e, 0x3f,
  0x8c, 0x77, 0x65, 0x3e, 0xe3, 0x44, 0x80, 0x3f, 0x5f, 0x64, 0x46, 0x3f,
  0x99, 0xf4, 0xae, 0x3e, 0xa5, 0x23, 0x08, 0x3f, 0x2f, 0x18, 0x99, 0x3f,
  0x54, 0x58, 0xc0, 0x3e, 0x91, 0x65, 0x62, 0x3e, 0x27, 0xcd, 0xfb, 0xbe,
  0xda, 0xc5, 0xff, 0xff, 0x04, 0x00, 0x00, 0x00, 0x58, 0x00, 0x00, 0x00,
  0x39, 0xbd, 0x03, 0x40, 0x85, 0xfd, 0xbd, 0x3f, 0xb9, 0x47, 0xba, 0x3f,
  0xbb, 0xb6, 0xce, 0x3f, 0x0e, 0xaf, 0x24, 0x40, 0xe2, 0x73, 0xbc, 0x3f,
  0x25, 0xb5, 0x16, 0x40, 0x1b, 0x2d, 0xaf, 0x3f, 0x74, 0xb8, 0x09, 0x40,
  0x9d, 0x0e, 0xd3, 0x3f, 0x06, 0x8b, 0xdb, 0x3f, 0x23, 0xc7, 0x03, 0x40,
  0xbf, 0x02, 0xc6, 0x3f, 0x52, 0x66, 0xd4, 0x3f, 0x45, 0xec, 0x0e, 0x40,
  0xc4, 0x69, 0xa4, 0x3f, 0x3e, 0x24, 0x99, 0x3f, 0x3c, 0xdb, 0x97, 0x3f,
  0x2d, 0x09, 0x20, 0x40, 0xe0, 0xe0, 0x1d, 0x40, 0xd8, 0x1c, 0x95, 0x3f,
  0xab, 0x3f, 0xd2, 0x3f, 0x3e, 0xc6, 0xff, 0xff, 0x04, 0x00, 0x00, 0x00,
  0x58, 0x00, 0x00, 0x00, 0x1b, 0x49, 0x81, 0x3f, 0x0f, 0x55, 0xcc, 0x3f,
  0xfb, 0xe8, 0x50, 0x3f, 0x2d, 0xa4, 0x40, 0x3f, 0xe0, 0x2a, 0x1a, 0xbe,
  0x9d, 0x8d, 0xd4, 0x3e, 0xb7, 0xfc, 0x55, 0x3f, 0x87, 0x2e, 0x59, 0x3f,
  0xfc, 0x41, 0xb6, 0x3f, 0xf9, 0x99, 0x60, 0x3f, 0xd6, 0x7c, 0xb3, 0x3e,
  0x60, 0xd7, 0x34, 0x3e, 0xf2, 0x66, 0x39, 0x3f, 0x1b, 0xb0, 0x93, 0x3e,
  0x2b, 0xd0, 0x65, 0x3f, 0x44, 0x72, 0xaa, 0x3f, 0xcc, 0x3d, 0xa5, 0x3f,
  0x0d, 0x9a, 0x6a, 0x3f, 0x6e, 0x46, 0x54, 0x3e, 0x3c, 0x98, 0x20, 0x3f,
  0x45, 0xb4, 0x93, 0x3f, 0xb5, 0xf7, 0x07, 0x3f, 0xa2, 0xc6, 0xff, 0xff,
  0x04, 0x00, 0x00, 0x00, 0x40, 0x00, 0x00, 0x00, 0x85, 0x3c, 0x58, 0x41,
  0xf3, 0x89, 0x79, 0x40, 0xb1, 0xa8, 0xab, 0x40, 0x15, 0x59, 0x49, 0x40,
  0x3e, 0x8b, 0x69, 0x40, 0x6a, 0xe2, 0xc3, 0x40, 0x8d, 0xea, 0x8a, 0x40,
  0x12, 0x62, 0xad, 0x40, 0x57, 0x26, 0xbf, 0x40, 0x05, 0x21, 0x87, 0x40,
  0x8b, 0xed, 0x20, 0x41, 0x56, 0x4f, 0x9d, 0x40, 0x05, 0x75, 0x6e, 0x40,
  0x35, 0xac, 0xa5, 0x40, 0x90, 0xa9, 0xbe, 0x40, 0x12, 0xa3, 0x9f, 0x40,
  0xee, 0xc6, 0xff, 0xff, 0x04, 0x00, 0x00, 0x00, 0x58, 0x00, 0x00, 0x00,
  0xb6, 0x1e, 0xda, 0x3f, 0x26, 0xd5, 0xcf, 0x3f, 0xe8, 0xeb, 0xc7, 0x3f,
  0x87, 0x37, 0x0a, 0x40, 0x9d, 0x32, 0x0f, 0x40, 0xb2, 0xe0, 0xcb, 0x3f,
  0x51, 0x9a, 0x47, 0x40, 0x1e, 0x59, 0x9c, 0x3f, 0x85, 0x2b, 0x45, 0x40,
  0xd7, 0x03, 0x0b, 0x40, 0xc3, 0x3b, 0x9b, 0x3f, 0xe0, 0x7e, 0xf2, 0x3f,
  0x17, 0x17, 0xe0, 0x3f, 0x82, 0x3b, 0x21, 0x40, 0xa3, 0xf9, 0xe8, 0x3f,
  0xa3, 0x73, 0xd1, 0x3f, 0x3a, 0x07, 0xb6, 0x3f, 0xe4, 0x32, 0xf5, 0x3f,
  0xc3, 0xaf, 0xcb, 0x3f, 0xf0, 0xf8, 0xd7, 0x3f, 0x8e, 0xc7, 0x56, 0x3e,
  0x17, 0x8a, 0x82, 0x3e, 0x52, 0xc7, 0xff, 0xff, 0x04, 0x00, 0x00, 0x00,
  0x58, 0x00, 0x00, 0x00, 0x99, 0xb7, 0x37, 0xbf, 0x62, 0xbb, 0x0b, 0x3f,
  0xa6, 0xad, 0x1a, 0x3f, 0x4c, 0xd1, 0x55, 0xbe, 0xb4, 0x02, 0x30, 0xbe,
  0x8c, 0x21, 0xfd, 0x3d, 0x6c, 0xad, 0x71, 0xbf, 0x82, 0xb0, 0x01, 0x3f,
  0x68, 0x86, 0x4d, 0xbf, 0xff, 0x41, 0xfe, 0x3e, 0x3e, 0xa5, 0x29, 0xbf,
  0x2c, 0xcc, 0x19, 0xbe, 0xe4, 0xc9, 0xfb, 0x3e, 0x8c, 0x38, 0xfb, 0xbe,
  0xa8, 0x22, 0x78, 0x3d, 0x38, 0x54, 0x83, 0x3f, 0x8c, 0x4a, 0xdf, 0x3e,
  0x2c, 0x06, 0x83, 0xbe, 0xb2, 0x97, 0x61, 0x3e, 0x9e, 0xe2, 0x92, 0xbf,
  0x14, 0xcd, 0x74, 0x3e, 0x62, 0xc1, 0x11, 0x3e, 0xb6, 0xc7, 0xff, 0xff,
  0x04, 0x00, 0x00, 0x00, 0x50, 0x00, 0x00, 0x00, 0xb6, 0x1e, 0xda, 0x3f,
  0x26, 0xd5, 0xcf, 0x3f, 0xe8, 0xeb, 0xc7, 0x3f, 0x87, 0x37, 0x0a, 0x40,
  0x9d, 0x32, 0x0f, 0x40, 0xb2, 0xe0, 0xcb, 0x3f, 0x51, 0x9a, 0x47, 0x40,
  0x1e, 0x59, 0x9c, 0x3f, 0x85, 0x2b, 0x45, 0x40, 0xd7, 0x03, 0x0b, 0x40,
  0xc3, 0x3b, 0x9b, 0x3f, 0xe0, 0x7e, 0xf2, 0x3f, 0x17, 0x17, 0xe0, 0x3f,
  0x82, 0x3b, 0x21, 0x40, 0xa3, 0xf9, 0xe8, 0x3f, 0xa3, 0x73, 0xd1, 0x3f,
  0x3a, 0x07, 0xb6, 0x3f, 0xe4, 0x32, 0xf5, 0x3f, 0xc3, 0xaf, 0xcb, 0x3f,
  0xf0, 0xf8, 0xd7, 0x3f, 0x12, 0xc8, 0xff, 0xff, 0x04, 0x00, 0x00, 0x00,
  0x50, 0x00, 0x00, 0x00, 0x1b, 0xe8, 0x8a, 0xbf, 0x9c, 0x70, 0xb8, 0xbe,
  0xe8, 0x8b, 0x81, 0x3f, 0x6e, 0x67, 0xc3, 0xbe, 0x60, 0x1d, 0x40, 0x3c,
  0xd3, 0x50, 0x8f, 0x3e, 0xf4, 0x49, 0x06, 0xbf, 0xaf, 0xd0, 0x7f, 0x3f,
  0x5e, 0xb1, 0xd2, 0xbe, 0x34, 0x3a, 0x32, 0x3f, 0x88, 0xde, 0xee, 0xbf,
  0xf0, 0x29, 0xef, 0x3e, 0x8a, 0x89, 0x50, 0x3f, 0x2c, 0x9c, 0x1f, 0xbd,
  0xbb, 0x0d, 0x0a, 0x3f, 0xd4, 0xd9, 0x28, 0x3f, 0xf1, 0xf4, 0x32, 0xbe,
  0xb9, 0x24, 0x9f, 0x3e, 0xe8, 0x23, 0x66, 0x3f, 0x32, 0x72, 0x0e, 0xbf,
  0x6e, 0xc8, 0xff, 0xff, 0x04, 0x00, 0x00, 0x00, 0x50, 0x00, 0x00, 0x00,
  0x32, 0xb1, 0x8b, 0x3f, 0x74, 0x50, 0x81, 0x3f, 0x2e, 0xc0, 0xb2, 0x3f,
  0x58, 0xad, 0xd0, 0x3f, 0x01, 0x11, 0xe4, 0x3f, 0xfc, 0x2a, 0xd5, 0x3f,
  0x14, 0x21, 0x8f, 0x3f, 0x49, 0xb4, 0xd4, 0x3f, 0x1d, 0x23, 0x8f, 0x3f,
  0xed, 0x8e, 0xe1, 0x3f, 0x04, 0x98, 0xd5, 0x3f, 0xcb, 0xa9, 0xc0, 0x3f,
  0x7c, 0x00, 0xcb, 0x3f, 0x1f, 0x10, 0x8d, 0x3f, 0x8c, 0x8b, 0xb0, 0x3f,
  0x7a, 0xe5, 0x18, 0x40, 0x3a, 0x46, 0x07, 0x40, 0x3c, 0xce, 0xa0, 0x3f,
  0x99, 0xfe, 0x26, 0x3e, 0xef, 0x79, 0x91, 0x3e, 0xca, 0xc8, 0xff, 0xff,
  0x04, 0x00, 0x00, 0x00, 0x50, 0x00, 0x00, 0x00, 0x52, 0xea, 0xe9, 0x3e,
  0x2b, 0xe2, 0x22, 0xbf, 0x4c, 0x98, 0xa7, 0xbf, 0x3d, 0xbe, 0x3a, 0xbf,
  0x7b, 0x3a, 0xb2, 0xbf, 0x86, 0xc0, 0xc6, 0x3e, 0x1d, 0xdc, 0x2d, 0xc0,
  0x41, 0xe1, 0x38, 0x3e, 0x86, 0x20, 0x12, 0xc0, 0xbc, 0x4a, 0xd2, 0x3e,
  0x80, 0x20, 0xdf, 0xbe, 0x40, 0x20, 0xfa, 0x3d, 0xa9, 0x11, 0xe5, 0xbe,
  0x0c, 0x55, 0x19, 0xbf, 0xf4, 0x87, 0x58, 0xbf, 0x40, 0xc9, 0x28, 0x3e,
  0xbd, 0x53, 0xdc, 0xbf, 0x40, 0x2f, 0x59, 0x3e, 0xec, 0xd6, 0xa5, 0xbe,
  0x5c, 0xe9, 0xc6, 0xbe, 0x26, 0xc9, 0xff, 0xff, 0x04, 0x00, 0x00, 0x00,
  0x48, 0x00, 0x00, 0x00, 0x32, 0xb1, 0x8b, 0x3f, 0x74, 0x50, 0x81, 0x3f,
  0x2e, 0xc0, 0xb2, 0x3f, 0x58, 0xad, 0xd0, 0x3f, 0x01, 0x11, 0xe4, 0x3f,
  0xfc, 0x2a, 0xd5, 0x3f, 0x14, 0x21, 0x8f, 0x3f, 0x49, 0xb4, 0xd4, 0x3f,
  0x1d, 0x23, 0x8f, 0x3f, 0xed, 0x8e, 0xe1, 0x3f, 0x04, 0x98, 0xd5, 0x3f,
  0xcb, 0xa9, 0xc0, 0x3f, 0x7c, 0x00, 0xcb, 0x3f, 0x1f, 0x10, 0x8d, 0x3f,
  0x8c, 0x8b, 0xb0, 0x3f, 0x7a, 0xe5, 0x18, 0x40, 0x3a, 0x46, 0x07, 0x40,
  0x3c, 0xce, 0xa0, 0x3f, 0x7a, 0xc9, 0xff, 0xff, 0x04, 0x00, 0x00, 0x00,
  0x48, 0x00, 0x00, 0x00, 0x90, 0x30, 0xe1, 0x3f, 0xad, 0x6f, 0x9e, 0xbf,
  0x80, 0xcd, 0xbd, 0xbc, 0xd8, 0x59, 0x89, 0x3c, 0xe8, 0xcf, 0x36, 0x3f,
  0xe2, 0x01, 0xa0, 0x3f, 0x04, 0xa1, 0xe3, 0xbf, 0x8a, 0x0d, 0x57, 0x3f,
  0xef, 0xd6, 0x1d, 0xc0, 0xb0, 0x52, 0xf0, 0xbd, 0xd2, 0xa7, 0xfc, 0xbd,
  0xae, 0x5a, 0xb1, 0x3f, 0x85, 0x57, 0xfb, 0x3e, 0xf2, 0x5b, 0xec, 0xbd,
  0x2f, 0xe3, 0x84, 0xbf, 0x5b, 0xdb, 0x5f, 0x3f, 0x11, 0x3f, 0xc3, 0xbf,
  0x0a, 0x37, 0x62, 0x3e, 0xce, 0xc9, 0xff, 0xff, 0x04, 0x00, 0x00, 0x00,
  0x40, 0x00, 0x00, 0x00, 0xc0, 0x7c, 0x10, 0xc0, 0x74, 0xf4, 0x76, 0x3f,
  0x06, 0xe3, 0x24, 0xbf, 0xcf, 0x86, 0xb1, 0xc0, 0xda, 0xe6, 0x2f, 0x40,
  0x6c, 0x50, 0x63, 0xbe, 0x5d, 0xbb, 0x4c, 0xc0, 0x15, 0x28, 0xf4, 0xbe,
  0xba, 0x0a, 0xa4, 0xbf, 0x5a, 0x2d, 0x8a, 0xc0, 0x2a, 0x07, 0xed, 0xbe,
  0xf3, 0x1b, 0x58, 0xc0, 0x20, 0x3b, 0x11, 0x40, 0xae, 0xe1, 0x69, 0xbf,
  0xad, 0x91, 0xd8, 0xbf, 0x86, 0x4f, 0x7e, 0xbf, 0x1a, 0xca, 0xff, 0xff,
  0x04, 0x00, 0x00, 0x00, 0x40, 0x00, 0x00, 0x00, 0x00, 0x00, 0x00, 0x00,
  0x00, 0x00, 0x00, 0x00, 0x00, 0x00, 0x00, 0x00, 0x00, 0x00, 0x00, 0x00,
  0x00, 0x00, 0x00, 0x00, 0x00, 0x00, 0x00, 0x00, 0x00, 0x00, 0x00, 0x00,
  0x00, 0x00, 0x00, 0x00, 0x00, 0x00, 0x00, 0x00, 0x00, 0x00, 0x00, 0x00,
  0x01, 0x00, 0x00, 0x00, 0x00, 0x00, 0x00, 0x00, 0x00, 0x00, 0x00, 0x00,
  0x00, 0x00, 0x00, 0x00, 0x00, 0x00, 0x00, 0x00, 0x00, 0x00, 0x00, 0x00,
  0x66, 0xca, 0xff, 0xff, 0x04, 0x00, 0x00, 0x00, 0x40, 0x00, 0x00, 0x00,
  0x00, 0x00, 0x00, 0x00, 0x00, 0x00, 0x00, 0x00, 0x00, 0x00, 0x00, 0x00,
  0x00, 0x00, 0x00, 0x00, 0x00, 0x00, 0x00, 0x00, 0x00, 0x00, 0x00, 0x00,
  0x00, 0x00, 0x00, 0x00, 0x00, 0x00, 0x00, 0x00, 0x00, 0x00, 0x00, 0x00,
  0x00, 0x00, 0x00, 0x00, 0x02, 0x00, 0x00, 0x00, 0x00, 0x00, 0x00, 0x00,
  0x00, 0x00, 0x00, 0x00, 0x00, 0x00, 0x00, 0x00, 0x00, 0x00, 0x00, 0x00,
  0x00, 0x00, 0x00, 0x00, 0xb2, 0xca, 0xff, 0xff, 0x04, 0x00, 0x00, 0x00,
  0x04, 0x00, 0x00, 0x00, 0x00, 0x00, 0x80, 0x3f, 0xc2, 0xca, 0xff, 0xff,
  0x04, 0x00, 0x00, 0x00, 0x04, 0x00, 0x00, 0x00, 0x0a, 0xd7, 0x23, 0x3c,
  0xd2, 0xca, 0xff, 0xff, 0x04, 0x00, 0x00, 0x00, 0x08, 0x00, 0x00, 0x00,
  0x01, 0x00, 0x00, 0x00, 0x02, 0x00, 0x00, 0x00, 0xe6, 0xca, 0xff, 0xff,
  0x04, 0x00, 0x00, 0x00, 0x04, 0x00, 0x00, 0x00, 0x03, 0x00, 0x00, 0x00,
  0xf6, 0xca, 0xff, 0xff, 0x04, 0x00, 0x00, 0x00, 0x30, 0x06, 0x00, 0x00,
  0x1a, 0xf2, 0x0a, 0xbf, 0x86, 0x26, 0x0f, 0xbe, 0xb9, 0xec, 0xb1, 0xbe,
  0xe2, 0x37, 0xbb, 0x3e, 0xe5, 0xdc, 0x7e, 0x3e, 0x76, 0xf5, 0x33, 0x3f,
  0xca, 0x40, 0xe0, 0xbe, 0x6f, 0x22, 0x87, 0xbc, 0x8e, 0x19, 0xca, 0xbe,
  0x17, 0x86, 0xe9, 0xbe, 0x66, 0x53, 0x0f, 0x3e, 0xcd, 0x12, 0xc0, 0xbe,
  0x7b, 0x75, 0x71, 0xbe, 0x69, 0x0b, 0x88, 0x3d, 0x3c, 0x42, 0x40, 0xbf,
  0xa8, 0x54, 0xe2, 0x3e, 0x22, 0x5c, 0xbf, 0xbe, 0x63, 0x01, 0xb1, 0xbe,
  0x5d, 0x09, 0x6a, 0xbe, 0x3e, 0x64, 0x8f, 0xbd, 0x7d, 0x28, 0x9d, 0xbe,
  0x8b, 0x68, 0x81, 0x3e, 0xfc, 0x63, 0x4a, 0xbf, 0xae, 0x5b, 0x05, 0xbe,
  0x37, 0xc1, 0x61, 0x3e, 0x21, 0x50, 0x80, 0x3e, 0x94, 0x2e, 0x1e, 0x3e,
  0x1e, 0xe8, 0xc1, 0x3e, 0x5f, 0x76, 0xd8, 0xbd, 0x9c, 0xb0, 0x9b, 0x3d,
  0xd5, 0xbb, 0x96, 0xbe, 0x60, 0x4b, 0x05, 0xbf, 0x2d, 0x43, 0x29, 0x3e,
  0xa7, 0x0e, 0x87, 0xbe, 0xa6, 0xba, 0xac, 0x3e, 0xf0, 0x9b, 0xc3, 0xbe,
  0xc4, 0xe2, 0x92, 0xbe, 0x2c, 0xb1, 0x3e, 0xbd, 0xb4, 0x54, 0xb8, 0xbe,
  0xfa, 0x92, 0x56, 0x3e, 0x04, 0xa6, 0x12, 0x3f, 0xae, 0xa3, 0xe8, 0x3e,
  0x62, 0xd9, 0x8b, 0xbe, 0xfc, 0x63, 0xe1, 0x3d, 0xd5, 0x2c, 0x0b, 0x3f,
  0x5c, 0x79, 0xf9, 0x3c, 0xbb, 0x1a, 0x84, 0xbe, 0xb5, 0x70, 0x4e, 0xbe,
  0x15, 0x83, 0x5d, 0xbd, 0x0e, 0xaf, 0xbb, 0x3e, 0x20, 0xbd, 0xca, 0xbd,
  0x18, 0x40, 0x13, 0xbe, 0x92, 0x27, 0x39, 0x3d, 0x66, 0x41, 0x8d, 0x3e,
  0xe8, 0xf0, 0x25, 0x3f, 0xed, 0xaf, 0xac, 0x3c, 0x09, 0x7c, 0x33, 0xbe,
  0xc5, 0x9e, 0x01, 0xbe, 0x28, 0xf8, 0x14, 0x3e, 0xa9, 0x16, 0xbf, 0x3d,
  0x5d, 0x3c, 0x30, 0xbd, 0x27, 0x4e, 0xb9, 0xbe, 0x80, 0x2f, 0xdc, 0x3e,
  0x52, 0x06, 0xcb, 0xbd, 0x17, 0x3f, 0x14, 0x3e, 0x71, 0xb7, 0xf1, 0x3e,
  0x5a, 0x7a, 0x38, 0xbe, 0x73, 0x06, 0x4b, 0x3f, 0x64, 0x99, 0x54, 0xbf,
  0x2b, 0x28, 0x5d, 0xbe, 0xe3, 0xeb, 0x6b, 0x3e, 0x0d, 0xa3, 0x14, 0x3f,
  0x15, 0x07, 0x30, 0x3e, 0xd0, 0x18, 0x8a, 0xbf, 0xd4, 0x82, 0xea, 0x3e,
  0x09, 0xc1, 0x64, 0x3e, 0xb6, 0x4b, 0xe9, 0xbf, 0x21, 0x95, 0x4f, 0x3f,
  0xfb, 0xbe, 0x39, 0xbf, 0x95, 0xf4, 0x0c, 0xbe, 0x24, 0xf3, 0x02, 0xbf,
  0x3d, 0xa1, 0x5a, 0x3f, 0x42, 0xaf, 0x19, 0xbf, 0x7f, 0xdb, 0x68, 0xbf,
  0x9b, 0x64, 0x98, 0x3d, 0xe8, 0x3f, 0x03, 0xbf, 0xe2, 0xae, 0x62, 0xbf,
  0xf6, 0xc7, 0x58, 0x3f, 0x8d, 0xd0, 0x99, 0xbb, 0x68, 0x63, 0x6d, 0xbf,
  0x57, 0x96, 0x88, 0x3f, 0x2c, 0xb5, 0xbc, 0x3e, 0x69, 0x5b, 0x5a, 0xbe,
  0x50, 0xe1, 0x28, 0xbf, 0x3b, 0x38, 0xf8, 0xbe, 0xc5, 0x12, 0xed, 0x3e,
  0xdb, 0xba, 0xce, 0xbe, 0x79, 0x9f, 0x37, 0xbe, 0xdb, 0x95, 0x16, 0x3f,
  0x82, 0xa1, 0x0a, 0x3e, 0x6a, 0xd8, 0x55, 0x3f, 0x4a, 0x35, 0x14, 0xbd,
  0xa5, 0x05, 0x0a, 0x3f, 0xdb, 0xf1, 0x58, 0xbf, 0xc3, 0x4e, 0xf3, 0x3d,
  0x0e, 0xc2, 0x14, 0x3f, 0x4e, 0x5c, 0x94, 0x3f, 0x86, 0x4c, 0x85, 0x3f,
  0xf2, 0x62, 0x1c, 0x3e, 0x72, 0xdd, 0x3e, 0xbf, 0xc9, 0xae, 0x89, 0x3e,
  0x91, 0xae, 0xc8, 0xbe, 0x2d, 0x50, 0xd2, 0xbd, 0x93, 0x08, 0xdb, 0x3e,
  0xb0, 0xf0, 0xaf, 0x3e, 0xdf, 0xb5, 0xc8, 0xbe, 0x13, 0xab, 0x8a, 0xbe,
  0xfb, 0x69, 0x00, 0x3f, 0xa7, 0x18, 0x2f, 0xbf, 0x9e, 0x63, 0x48, 0xbe,
  0x69, 0x97, 0x5d, 0x3f, 0x14, 0x55, 0x80, 0xbe, 0x0c, 0x37, 0x91, 0xbe,
  0x60, 0x75, 0x63, 0xbe, 0x7d, 0xc8, 0x5b, 0x3d, 0x41, 0x6c, 0x19, 0xbf,
  0xe2, 0x54, 0xaf, 0x3e, 0xc5, 0x79, 0xa7, 0x3e, 0xca, 0xce, 0x81, 0xbe,
  0x2d, 0x30, 0x10, 0xbd, 0x9b, 0x5c, 0x87, 0x3c, 0x6c, 0x9f, 0x44, 0xbe,
  0x15, 0x45, 0x8e, 0xbe, 0xdf, 0x1a, 0x81, 0xbf, 0x60, 0x6d, 0x7a, 0x3a,
  0xbe, 0x78, 0x0c, 0x3e, 0xb6, 0xa2, 0x61, 0xbe, 0xa2, 0xf0, 0x01, 0xbf,
  0x8d, 0xff, 0x68, 0xbf, 0x4f, 0x7e, 0x6a, 0x3e, 0xce, 0x29, 0x4e, 0xbe,
  0x37, 0x6e, 0xc2, 0xbe, 0xd5, 0x14, 0x59, 0x3f, 0x94, 0x26, 0x61, 0xbe,
  0x14, 0xb4, 0x29, 0x3e, 0x77, 0x79, 0x78, 0xbd, 0xc9, 0x76, 0x92, 0x3e,
  0x71, 0xc3, 0x43, 0xbf, 0x35, 0xda, 0xaa, 0x3b, 0x7f, 0x0a, 0x07, 0x3f,
  0x50, 0xed, 0xac, 0xbf, 0xc6, 0xc1, 0xcd, 0x3e, 0x18, 0xf7, 0x1a, 0x3f,
  0xa0, 0xb1, 0x0f, 0xbf, 0x72, 0xfc, 0x87, 0xbb, 0x3e, 0xe2, 0x9d, 0xbe,
  0x36, 0xec, 0x6c, 0x3f, 0x6c, 0xff, 0xd9, 0xbd, 0x65, 0x25, 0xbb, 0xbe,
  0x68, 0xc2, 0x73, 0xbe, 0x16, 0xb9, 0x1c, 0x3e, 0xf4, 0x19, 0x88, 0xbd,
  0xb1, 0x83, 0xa4, 0x3e, 0x05, 0xee, 0x6e, 0xbe, 0xce, 0x5a, 0xbc, 0xbe,
  0x07, 0x47, 0x96, 0xbe, 0x5c, 0x62, 0x94, 0x3f, 0xb4, 0x19, 0x48, 0xbc,
  0xe3, 0x3d, 0xca, 0xbd, 0x92, 0x88, 0x34, 0xbe, 0xd7, 0xcf, 0x94, 0x3e,
  0x84, 0xd8, 0x93, 0x3f, 0x85, 0xba, 0x84, 0x3c, 0x47, 0x0a, 0x43, 0x3f,
  0x4f, 0xa2, 0x8d, 0x3e, 0x33, 0x97, 0x97, 0xbe, 0x79, 0x35, 0x2b, 0xbe,
  0x29, 0x50, 0x19, 0x3e, 0x6c, 0x48, 0x83, 0x3f, 0x9f, 0xcb, 0xd1, 0x3e,
  0xae, 0x62, 0x96, 0x3e, 0xe7, 0x0e, 0x5b, 0x3e, 0x1d, 0x25, 0xa0, 0x3d,
  0x39, 0xf5, 0x05, 0x3f, 0x60, 0x0c, 0x35, 0x3f, 0x55, 0xe3, 0xd8, 0xbe,
  0x8d, 0xba, 0xa0, 0xbc, 0xfe, 0x70, 0x28, 0x3e, 0x8f, 0x30, 0x5b, 0x3f,
  0x27, 0x5b, 0x07, 0xbf, 0x35, 0x8e, 0xb0, 0x3b, 0xaa, 0x77, 0x75, 0xbc,
  0xbc, 0x5d, 0x06, 0xbd, 0xda, 0x8e, 0x82, 0x3f, 0xc5, 0x53, 0xfe, 0xbc,
  0x0c, 0x4a, 0x0b, 0x3f, 0x97, 0xf4, 0x1e, 0x3f, 0x4f, 0x66, 0x9a, 0xbe,
  0x5b, 0x8f, 0xb8, 0x3e, 0x98, 0x84, 0x5a, 0xbe, 0x77, 0x26, 0x37, 0x3e,
  0x3b, 0x50, 0x1f, 0x3e, 0x79, 0x16, 0x2c, 0xbe, 0xa5, 0xb8, 0x95, 0xbf,
  0x01, 0x2b, 0x3b, 0xbf, 0xab, 0x74, 0xb3, 0x3e, 0x06, 0x62, 0xd4, 0xbe,
  0x6d, 0x01, 0xc4, 0x3e, 0xcd, 0xac, 0xda, 0x3e, 0xd8, 0x2a, 0x68, 0x3e,
  0xd7, 0xaf, 0xb6, 0x3e, 0xaa, 0x07, 0x4e, 0x3e, 0x75, 0x0b, 0xa0, 0x3e,
  0x95, 0x43, 0x19, 0xbf, 0xf0, 0x67, 0x2c, 0x3f, 0x21, 0x99, 0xd1, 0x3e,
  0x61, 0xbb, 0x66, 0x3e, 0xe4, 0xb4, 0x3c, 0x3e, 0x2e, 0xbc, 0xb8, 0x3d,
  0x2f, 0xe9, 0x0a, 0xbf, 0x6d, 0x84, 0x72, 0x3e, 0x15, 0xe1, 0xda, 0x3c,
  0x77, 0xb4, 0x31, 0x3e, 0x80, 0x50, 0x04, 0x3e, 0x29, 0x7c, 0x01, 0xbd,
  0xa8, 0x92, 0x5a, 0xbf, 0xfd, 0x2d, 0x1f, 0xbd, 0x9d, 0xfc, 0x07, 0x3e,
  0xab, 0x76, 0xa0, 0xbc, 0x0f, 0x3a, 0x2e, 0x3e, 0xdd, 0x7a, 0xd7, 0xbe,
  0x58, 0x3e, 0x11, 0x3e, 0x76, 0xfc, 0xc7, 0x3e, 0xbf, 0x10, 0x45, 0x3e,
  0x67, 0xcb, 0x3e, 0x3e, 0x53, 0x56, 0xae, 0xbd, 0x52, 0xa8, 0x8c, 0x3e,
  0x19, 0x1b, 0x88, 0x3e, 0xc3, 0x61, 0xa0, 0xbd, 0x37, 0xe1, 0xae, 0x3e,
  0x7c, 0xec, 0xa7, 0xbd, 0x5f, 0x39, 0x80, 0xbe, 0xda, 0x49, 0x83, 0x3b,
  0x60, 0xca, 0xca, 0xbe, 0x59, 0xbf, 0x87, 0x3e, 0xc5, 0xab, 0xb5, 0x3e,
  0xe6, 0xe9, 0x06, 0xbe, 0xda, 0x4c, 0x74, 0xbf, 0x1d, 0x95, 0x52, 0x3c,
  0xa6, 0xc6, 0x3b, 0x3f, 0x44, 0x1c, 0x3d, 0xbe, 0xbe, 0x12, 0xc7, 0x3d,
  0x4c, 0x44, 0x3b, 0x3c, 0x45, 0x49, 0x0a, 0x3d, 0xe9, 0xbe, 0x0a, 0x3f,
  0xe0, 0x7f, 0x0a, 0x3e, 0x82, 0xbd, 0xbd, 0x3e, 0x76, 0x11, 0xb8, 0xbe,
  0x4a, 0x9a, 0xc2, 0x3e, 0x68, 0xdc, 0x68, 0x3e, 0x1d, 0xb4, 0x90, 0x3e,
  0xdb, 0x1d, 0x09, 0x3f, 0xff, 0x8d, 0xa2, 0x3e, 0x77, 0xf0, 0x0e, 0xbf,
  0x4e, 0x06, 0x9d, 0x3e, 0xb3, 0x1b, 0x0f, 0xbf, 0x7f, 0x27, 0xd8, 0x3e,
  0x78, 0x99, 0xaf, 0x3e, 0x56, 0x22, 0x34, 0x3d, 0xbf, 0xe9, 0x4c, 0xbf,
  0x14, 0xd3, 0xda, 0xbe, 0x93, 0x3a, 0x00, 0x3f, 0xb3, 0xab, 0x3c, 0xbf,
  0x55, 0x58, 0x89, 0x3c, 0xdf, 0xcf, 0x8a, 0x3f, 0x77, 0xc4, 0x18, 0x3e,
  0xec, 0x1c, 0xe0, 0x3e, 0x64, 0x13, 0x69, 0xbe, 0xc8, 0x72, 0x95, 0x3e,
  0xc1, 0xdd, 0x4b, 0xbf, 0xcf, 0xc3, 0x7f, 0x3e, 0xae, 0x0e, 0xcd, 0x3e,
  0x4f, 0x2f, 0x11, 0x3f, 0x0c, 0xdd, 0xd7, 0x3e, 0xd0, 0xd8, 0x52, 0x3e,
  0xc1, 0x2b, 0x16, 0xbf, 0x8c, 0x64, 0xab, 0x3d, 0xdf, 0x86, 0x59, 0x3c,
  0x38, 0x7f, 0x62, 0x3e, 0xe8, 0xfa, 0x13, 0x3e, 0xde, 0x25, 0x29, 0x3e,
  0x40, 0x13, 0x08, 0xbf, 0xe7, 0x69, 0x42, 0xbe, 0xbe, 0x35, 0x98, 0x3d,
  0x16, 0x65, 0xf1, 0xbd, 0xa9, 0xdc, 0x15, 0xbe, 0x6d, 0xb4, 0xfb, 0x3a,
  0xee, 0x9b, 0xf6, 0xbc, 0x7f, 0x1b, 0x7e, 0x3e, 0xb8, 0x07, 0xab, 0xbd,
  0x5a, 0x04, 0xd0, 0x3d, 0x94, 0x95, 0x5a, 0xbd, 0xd2, 0x20, 0xac, 0xbc,
  0x4c, 0x02, 0x92, 0x3e, 0x09, 0xb8, 0xbc, 0x3e, 0xf4, 0x4d, 0x63, 0x3e,
  0xca, 0xfc, 0x11, 0xbe, 0x00, 0x41, 0x1a, 0xbd, 0xd2, 0xd8, 0xd6, 0x3e,
  0xe7, 0xf9, 0x1f, 0xbf, 0x7b, 0x3f, 0x8b, 0x3e, 0x6e, 0xac, 0x39, 0x3e,
  0x67, 0x64, 0x65, 0x3b, 0x07, 0xd4, 0xee, 0xbe, 0x34, 0x2e, 0x65, 0x3d,
  0x8a, 0x40, 0xf5, 0x3e, 0x5b, 0x68, 0xd8, 0xbe, 0x48, 0x25, 0x21, 0xbd,
  0x00, 0xcc, 0xf5, 0x3e, 0x97, 0xce, 0xd2, 0x3d, 0x10, 0x09, 0xf2, 0x3d,
  0x5b, 0x5a, 0x29, 0xbe, 0xd6, 0x1e, 0x6e, 0x3e, 0xf5, 0x70, 0xeb, 0xbe,
  0x2b, 0xdf, 0xd0, 0x3e, 0x41, 0xd2, 0x85, 0x3e, 0x99, 0xa1, 0x24, 0x3f,
  0xe2, 0xdf, 0xd6, 0x3e, 0x62, 0x7b, 0xb8, 0x3e, 0xb9, 0xe4, 0x30, 0xbf,
  0x17, 0x25, 0x06, 0x3e, 0x49, 0xaa, 0xb7, 0x3e, 0xce, 0xc5, 0x48, 0xbe,
  0xd5, 0x52, 0x54, 0xbe, 0x10, 0xe4, 0x0c, 0x3e, 0xa7, 0x8d, 0x63, 0x3e,
  0x05, 0xf5, 0x0a, 0xbe, 0x3a, 0xd5, 0xb8, 0x3d, 0xf8, 0x10, 0xea, 0xbe,
  0xfb, 0x60, 0x37, 0x3b, 0x57, 0x0a, 0x23, 0xbe, 0x9a, 0x37, 0x15, 0xbd,
  0x2b, 0x5a, 0xd4, 0x3d, 0x63, 0x0c, 0x20, 0x3b, 0x82, 0x0a, 0x82, 0xbd,
  0x45, 0x86, 0x99, 0x3e, 0x51, 0x85, 0xa3, 0xbe, 0xae, 0x08, 0x53, 0xbe,
  0x91, 0xd5, 0xb2, 0x3e, 0xf3, 0x99, 0x74, 0xbe, 0x7f, 0x9f, 0x0e, 0xbf,
  0x02, 0xce, 0xb6, 0x3e, 0xd2, 0xec, 0x91, 0xbd, 0x79, 0xb0, 0x28, 0x3f,
  0x61, 0x6c, 0x98, 0xbe, 0xb5, 0xee, 0x80, 0xbe, 0x2c, 0xe2, 0x88, 0x3e,
  0x43, 0x05, 0xfd, 0x3e, 0x14, 0xf1, 0x71, 0x3e, 0xd0, 0xfc, 0xa9, 0xbe,
  0x22, 0x70, 0xf6, 0xbe, 0x98, 0xc1, 0x96, 0xbd, 0x5f, 0x54, 0xc8, 0xbe,
  0xda, 0x73, 0x29, 0x3d, 0x7d, 0xd3, 0xf8, 0xbd, 0xe6, 0x90, 0x1d, 0xbe,
  0x08, 0x40, 0x6c, 0xbe, 0x6e, 0x5c, 0x06, 0x3f, 0xbd, 0x44, 0xfb, 0xbe,
  0x40, 0xa8, 0x50, 0xbe, 0x72, 0xbf, 0x2a, 0x3f, 0x4a, 0x7b, 0x9c, 0xbe,
  0x0e, 0xc8, 0xaf, 0xbe, 0x6e, 0x7a, 0x2c, 0x3f, 0x6b, 0xeb, 0x8f, 0x3e,
  0x03, 0xcd, 0xdb, 0x3e, 0x10, 0xfc, 0x29, 0xbf, 0xaf, 0x91, 0x9d, 0xbe,
  0xec, 0x32, 0x49, 0x3c, 0x70, 0x8a, 0x51, 0x3e, 0x0e, 0xbc, 0x87, 0x3e,
  0x66, 0xff, 0xc8, 0xbe, 0x80, 0x5d, 0x27, 0xbe, 0xa5, 0xe0, 0xab, 0x3d,
  0x9f, 0x8a, 0xaa, 0xbe, 0x84, 0xbb, 0x4c, 0x3e, 0x45, 0xaf, 0xea, 0xbe,
  0x62, 0x58, 0x72, 0x3e, 0x85, 0xff, 0x53, 0x3d, 0xf0, 0x3c, 0xb7, 0x3e,
  0xe0, 0x79, 0x12, 0xbe, 0x8b, 0x65, 0x93, 0xbe, 0x67, 0x04, 0x09, 0x3f,
  0x2f, 0x09, 0x1c, 0xbf, 0xc5, 0xd0, 0x0e, 0xbf, 0x19, 0x7f, 0x6c, 0x3e,
  0x32, 0xd1, 0xff, 0xff, 0x04, 0x00, 0x00, 0x00, 0x90, 0x07, 0x00, 0x00,
  0xf1, 0xec, 0x18, 0xbe, 0x7e, 0xd1, 0x45, 0x3e, 0xb3, 0x67, 0x36, 0x3e,
  0xda, 0x2b, 0x79, 0xbf, 0xfc, 0xd7, 0x61, 0x3e, 0xaf, 0xed, 0x80, 0xbe,
  0x6b, 0xd6, 0x9d, 0xbe, 0xa5, 0x52, 0x91, 0xbe, 0x8b, 0x22, 0xe7, 0xbe,
  0x09, 0xd1, 0x37, 0xbe, 0x2d, 0x4b, 0x38, 0x3e, 0xe9, 0x9c, 0x86, 0x3c,
  0x52, 0x98, 0x48, 0x3d, 0xfb, 0x7b, 0xa8, 0xbe, 0xe8, 0x81, 0x32, 0x3e,
  0x67, 0xe9, 0x37, 0xbf, 0xa8, 0xc9, 0x7a, 0x3e, 0x67, 0x79, 0x4a, 0xbf,
  0xdc, 0x2d, 0x9d, 0xbe, 0xea, 0xbd, 0xa1, 0x3e, 0x3f, 0x31, 0x19, 0x3f,
  0x81, 0x16, 0x8a, 0xbe, 0xe8, 0xee, 0xa1, 0x3e, 0x5e, 0xd3, 0x31, 0xbf,
  0x09, 0x50, 0xba, 0xbd, 0x82, 0xbd, 0xf9, 0xbb, 0xe9, 0x63, 0x05, 0xbf,
  0x4e, 0xc9, 0x8a, 0xbe, 0xc7, 0x76, 0xfd, 0xbd, 0xcf, 0x2c, 0x32, 0xbf,
  0x97, 0x17, 0x10, 0xbf, 0x4a, 0xf9, 0x55, 0x3d, 0x0a, 0xcb, 0x93, 0xbf,
  0xda, 0x3b, 0x61, 0x3e, 0x94, 0x1b, 0xdb, 0xbe, 0x98, 0x71, 0x6b, 0x3e,
  0x6e, 0xae, 0x32, 0xbe, 0xc6, 0x3c, 0xbb, 0x3e, 0x31, 0xc2, 0xe3, 0xbe,
  0x1a, 0x6e, 0xde, 0xbe, 0x11, 0x1c, 0x13, 0xbe, 0x70, 0xe4, 0xf5, 0x3e,
  0x95, 0x4e, 0x6e, 0xbf, 0x98, 0x88, 0xe7, 0x3e, 0xd4, 0x9c, 0x7c, 0x3e,
  0xfe, 0xb6, 0x85, 0xbe, 0x30, 0x08, 0x90, 0xbe, 0xa9, 0x6f, 0x1f, 0xbe,
  0x66, 0x53, 0x74, 0x3e, 0x8c, 0x0d, 0xb5, 0xbe, 0x57, 0x83, 0x41, 0xbe,
  0x41, 0x25, 0xd8, 0x3d, 0xe7, 0xdc, 0x65, 0x3e, 0x21, 0x2e, 0x99, 0x3d,
  0x00, 0x64, 0x22, 0xbf, 0xce, 0x97, 0x0a, 0xbf, 0x7e, 0x33, 0x2e, 0xbd,
  0xeb, 0xf2, 0xb9, 0xbe, 0x0f, 0x7f, 0xc2, 0x3d, 0x9a, 0x89, 0xa4, 0x3e,
  0xce, 0x9b, 0x8f, 0xbe, 0xa1, 0x76, 0x17, 0xbd, 0xf5, 0xb2, 0xd1, 0x3c,
  0xc5, 0x1c, 0xc9, 0xbc, 0x2a, 0x37, 0x2c, 0x3f, 0xc0, 0xd9, 0xa3, 0xbf,
  0x15, 0xeb, 0x1d, 0x3d, 0xa6, 0xd1, 0x9d, 0xbe, 0xac, 0x61, 0xbb, 0xbe,
  0xf7, 0x04, 0xcf, 0xbe, 0x90, 0xde, 0x2b, 0xbc, 0xdc, 0xb9, 0x34, 0xbf,
  0xa7, 0xb1, 0x59, 0x3e, 0x70, 0x5e, 0x39, 0xbe, 0x1b, 0x13, 0xd6, 0x3d,
  0x78, 0x6b, 0xa7, 0xbe, 0xa9, 0x94, 0x03, 0xbf, 0x62, 0xa3, 0x70, 0xbc,
  0xfd, 0xd0, 0x26, 0xbe, 0xdc, 0x60, 0xc0, 0xbe, 0x67, 0xae, 0xd4, 0xbd,
  0x15, 0xf9, 0x8c, 0x3e, 0xb7, 0x3e, 0x0e, 0xbf, 0xa9, 0x7f, 0xdd, 0xbe,
  0x45, 0xb7, 0x4e, 0x3e, 0xf1, 0x0d, 0x1d, 0x3d, 0x20, 0xee, 0x2f, 0x3f,
  0x6b, 0xe2, 0x1f, 0xbf, 0x92, 0x51, 0xee, 0xbe, 0x43, 0x67, 0x88, 0x3c,
  0x86, 0x8f, 0xa9, 0xbe, 0x72, 0xec, 0x42, 0xbe, 0x3a, 0xe8, 0xa3, 0xbd,
  0x11, 0x1e, 0x8e, 0xbe, 0x8a, 0x95, 0x6e, 0x3f, 0xa7, 0x13, 0x82, 0x3e,
  0x8e, 0x6e, 0xf2, 0xbd, 0xe9, 0x63, 0x1f, 0x3e, 0xdf, 0x55, 0xea, 0x3e,
  0xaf, 0xd0, 0x85, 0x3e, 0x98, 0x35, 0x0e, 0xbf, 0xa6, 0xbe, 0xb6, 0xbc,
  0x79, 0xcd, 0x6e, 0xbc, 0x6a, 0x6e, 0xf4, 0xbe, 0xa8, 0xf7, 0x9b, 0x3e,
  0xbd, 0x9b, 0x6d, 0xbe, 0x4e, 0x62, 0x65, 0xbe, 0xf9, 0x95, 0x6f, 0x3e,
  0x90, 0xc3, 0x5c, 0xbe, 0x64, 0x17, 0x8d, 0xbe, 0x9b, 0x91, 0x11, 0x3f,
  0xdc, 0x57, 0x99, 0xbc, 0xf6, 0x55, 0xb8, 0xbd, 0x7c, 0x88, 0x97, 0x3e,
  0xc6, 0x7e, 0xf0, 0xbe, 0xcd, 0x0d, 0x69, 0xbe, 0x58, 0x10, 0xad, 0xbe,
  0x53, 0xa9, 0xed, 0x3d, 0xb3, 0x81, 0x48, 0xbd, 0x20, 0x46, 0x75, 0x3c,
  0xf1, 0xaf, 0x56, 0xbd, 0x25, 0x98, 0x8a, 0x3e, 0x78, 0x67, 0x1a, 0xbe,
  0x2a, 0xf4, 0xa2, 0x3e, 0xd4, 0xbb, 0x5c, 0xbe, 0x1c, 0x66, 0x31, 0xbe,
  0xbd, 0xdd, 0x04, 0xbe, 0x24, 0xbc, 0xdb, 0x3d, 0x59, 0x71, 0xcb, 0xbd,
  0x3d, 0xce, 0xd9, 0xbd, 0xfd, 0x46, 0x4e, 0xbf, 0x46, 0x47, 0xbb, 0x3f,
  0x3f, 0x05, 0x29, 0x3f, 0xd3, 0xec, 0x83, 0xbe, 0x21, 0xa1, 0xdc, 0xbd,
  0xff, 0x6e, 0x16, 0x3e, 0x08, 0xf2, 0x84, 0xbe, 0x5b, 0x63, 0xb1, 0xbe,
  0x1e, 0xac, 0xfb, 0x3e, 0x8f, 0x9f, 0xfc, 0xbc, 0x49, 0xc7, 0x62, 0xbe,
  0xab, 0x9a, 0x69, 0xbe, 0xb2, 0xd3, 0xb0, 0x3e, 0xa1, 0xb6, 0x0c, 0x3f,
  0x82, 0x90, 0xd6, 0xbe, 0xe8, 0x1d, 0x07, 0x3d, 0x18, 0x41, 0xab, 0xbe,
  0x0b, 0x32, 0x0d, 0x3c, 0x5a, 0xc4, 0x92, 0x3e, 0x38, 0xf0, 0xb2, 0x3d,
  0x29, 0x42, 0xaa, 0xbd, 0xd1, 0x2c, 0xd2, 0x3d, 0x4c, 0xdc, 0xcd, 0xbe,
  0xe4, 0xc7, 0x68, 0xbf, 0x38, 0x06, 0xb8, 0x3e, 0xbe, 0x51, 0x31, 0x3e,
  0x56, 0x74, 0x39, 0xbc, 0xdf, 0x57, 0x48, 0xbf, 0x00, 0xeb, 0x92, 0x3e,
  0x21, 0x20, 0xb4, 0xbe, 0x23, 0xae, 0x9e, 0xbe, 0xca, 0x55, 0xa0, 0x3d,
  0x26, 0xa0, 0xc0, 0x3d, 0x6d, 0x3c, 0x8c, 0x3c, 0x81, 0xc4, 0x22, 0xbf,
  0x79, 0xc6, 0x15, 0xbe, 0x31, 0x32, 0x34, 0x3e, 0xce, 0x72, 0xef, 0xbe,
  0x1e, 0xd4, 0xa4, 0x3b, 0x1a, 0xd1, 0x00, 0x3e, 0x5d, 0xec, 0x2b, 0xbe,
  0xfc, 0xda, 0x86, 0xbf, 0xa2, 0x30, 0xc6, 0xbe, 0xaf, 0x7d, 0xbc, 0xbc,
  0xd7, 0xe6, 0x07, 0x3f, 0xcc, 0x2a, 0xa6, 0xbf, 0xf9, 0x88, 0x71, 0x3e,
  0x51, 0x8f, 0xe5, 0xbe, 0xa0, 0xc9, 0x12, 0xbf, 0xdf, 0xff, 0xaf, 0x3e,
  0x26, 0x9c, 0xa1, 0xbd, 0x5e, 0xf5, 0xb2, 0xbe, 0x10, 0x52, 0xa4, 0xbd,
  0x85, 0x26, 0x36, 0xbf, 0x83, 0x8f, 0x48, 0xbd, 0xd6, 0xec, 0xce, 0xbd,
  0x90, 0x0f, 0xf8, 0xbe, 0x94, 0x33, 0xf8, 0x3e, 0xc4, 0x94, 0x61, 0xbf,
  0xdf, 0xcb, 0xec, 0x3c, 0x24, 0xf9, 0x0c, 0xbe, 0xad, 0x2c, 0x54, 0x3e,
  0x57, 0xaf, 0x35, 0x3e, 0x12, 0x02, 0x63, 0x3d, 0xac, 0x9e, 0x68, 0x3e,
  0xc4, 0xc2, 0x90, 0x3e, 0x6c, 0x7f, 0xb5, 0x3d, 0x15, 0x22, 0x0a, 0xbf,
  0x49, 0x0d, 0xdd, 0xbe, 0x4f, 0x60, 0xa8, 0x3e, 0x1e, 0x68, 0x09, 0x3d,
  0x91, 0xaa, 0x3c, 0xbf, 0xa5, 0xb7, 0x33, 0xbf, 0x68, 0x91, 0x94, 0x3e,
  0x8b, 0x47, 0x70, 0xbd, 0x68, 0x40, 0xec, 0xbd, 0x1f, 0xb8, 0xfb, 0xbd,
  0x49, 0x9a, 0x2c, 0x3e, 0xc9, 0x6d, 0x2c, 0x3d, 0xfa, 0x59, 0x3e, 0xba,
  0x84, 0x30, 0xf2, 0xbd, 0xd0, 0xff, 0xa3, 0xbe, 0xac, 0xfe, 0x0a, 0xbe,
  0x0d, 0x91, 0xeb, 0xbe, 0x2b, 0x83, 0x7a, 0x3e, 0x3d, 0x3e, 0x23, 0xbe,
  0x76, 0x36, 0x9b, 0xbd, 0xfd, 0x86, 0x00, 0xbf, 0x03, 0x4d, 0x16, 0x3e,
  0x36, 0x64, 0x9e, 0xbe, 0x77, 0x6b, 0xf9, 0xbe, 0x25, 0x22, 0x76, 0x3b,
  0x5b, 0xbd, 0xf6, 0x3e, 0xc6, 0x0b, 0x5f, 0xbf, 0x91, 0x07, 0xcb, 0x3e,
  0x74, 0x3d, 0x07, 0x3e, 0x30, 0xb0, 0x60, 0x3e, 0xbe, 0xf0, 0xcb, 0x3e,
  0x75, 0xf9, 0x2e, 0x3e, 0x81, 0x59, 0xb1, 0x3e, 0xa0, 0xf3, 0x3b, 0xbe,
  0x33, 0xf5, 0x1f, 0xbe, 0x76, 0xbd, 0x67, 0xbc, 0xb4, 0x20, 0xce, 0xbd,
  0xd1, 0xbc, 0x9a, 0x3d, 0xfd, 0xc3, 0xb6, 0x3d, 0x88, 0x83, 0xc2, 0xbe,
  0xcb, 0x78, 0x39, 0xbf, 0xa9, 0x15, 0x35, 0xbf, 0xfa, 0x67, 0x07, 0xbf,
  0xd2, 0x54, 0x4c, 0x3f, 0xa4, 0x7f, 0x46, 0x3c, 0x83, 0xed, 0xdc, 0xbe,
  0x4a, 0x95, 0xaa, 0xbd, 0x1d, 0xc5, 0x4b, 0xbe, 0x26, 0x5c, 0x2f, 0xbf,
  0xec, 0x47, 0x10, 0xbe, 0x73, 0xd6, 0x50, 0xbe, 0x2a, 0x93, 0xca, 0x3e,
  0x69, 0xff, 0x7b, 0xbe, 0x71, 0x46, 0x56, 0x3d, 0xce, 0x62, 0x53, 0xbe,
  0x39, 0xe5, 0xc5, 0x3e, 0x45, 0x4d, 0x25, 0xbe, 0x26, 0x9a, 0xb6, 0x3d,
  0xc6, 0x7d, 0x3d, 0x3e, 0x3d, 0x88, 0x0d, 0xbe, 0xcc, 0x7b, 0xf3, 0xbd,
  0xc8, 0x0d, 0x6a, 0x3e, 0xce, 0x9c, 0x58, 0xbe, 0x05, 0x60, 0x08, 0x3e,
  0xa7, 0x79, 0x2d, 0xbf, 0x66, 0xcf, 0xca, 0x3e, 0x81, 0xd6, 0x6b, 0xbf,
  0x71, 0xd7, 0xda, 0x3d, 0x56, 0xe2, 0x83, 0xbe, 0x99, 0x8a, 0x83, 0xbd,
  0xd7, 0x41, 0x5c, 0xbe, 0x33, 0xa0, 0x3e, 0x3e, 0x82, 0x54, 0x2b, 0xbf,
  0xf1, 0x21, 0x35, 0xbe, 0x0b, 0x67, 0x8c, 0x3e, 0x09, 0x76, 0xc4, 0x3d,
  0xb6, 0x11, 0x16, 0xbd, 0xfe, 0xbe, 0x21, 0xbf, 0x88, 0xe9, 0xf5, 0xbc,
  0xb1, 0xc0, 0x1b, 0x3e, 0xa1, 0x59, 0xf2, 0xbe, 0xad, 0x66, 0x4a, 0xbe,
  0x63, 0x38, 0x06, 0x3e, 0xc1, 0xa1, 0x33, 0x3e, 0x6d, 0x09, 0xb8, 0xbe,
  0x87, 0xaa, 0x98, 0x3e, 0xb5, 0xdd, 0x75, 0x3e, 0xc3, 0x9c, 0xc1, 0x3e,
  0x0a, 0x3c, 0xbc, 0xbf, 0xb3, 0x00, 0x34, 0xbf, 0xdf, 0xed, 0xf3, 0x3d,
  0x52, 0x26, 0xc2, 0xbe, 0xfd, 0xcd, 0x1c, 0x3e, 0x8d, 0x5e, 0x84, 0x3e,
  0x23, 0xce, 0x77, 0xbe, 0x0a, 0x27, 0x9b, 0x3d, 0xde, 0x90, 0x51, 0x3e,
  0xa2, 0x57, 0x5f, 0xbf, 0x58, 0x03, 0x6e, 0xbe, 0x47, 0xd8, 0x81, 0xbc,
  0x67, 0x1a, 0xab, 0x3c, 0x82, 0x7f, 0xbf, 0xbe, 0x9b, 0x44, 0x14, 0x3e,
  0x32, 0x19, 0x92, 0x3e, 0x06, 0x42, 0x2b, 0xbd, 0x40, 0xe5, 0xa5, 0x3e,
  0xf4, 0xef, 0xb7, 0xbc, 0xb9, 0xcf, 0x9c, 0x3e, 0x96, 0x15, 0xf9, 0xbe,
  0xce, 0x90, 0x3d, 0xbf, 0x08, 0xe4, 0x89, 0x3e, 0xb8, 0xd4, 0x95, 0x3c,
  0x5a, 0xa4, 0x28, 0xbe, 0xbc, 0x02, 0xaa, 0x3e, 0xde, 0x1a, 0x23, 0xbe,
  0x65, 0x5a, 0x00, 0xbf, 0x12, 0xac, 0x8a, 0xbd, 0x6c, 0x65, 0xfd, 0xbb,
  0xa2, 0x82, 0x2c, 0xbd, 0x45, 0x33, 0x2d, 0xbe, 0x9f, 0xbd, 0x95, 0x3e,
  0x5d, 0x57, 0x00, 0x3e, 0xaf, 0x6b, 0x52, 0xbe, 0x59, 0xda, 0x99, 0xbe,
  0x9a, 0x0d, 0x1b, 0xbe, 0xd3, 0xd5, 0xf5, 0xbe, 0x96, 0x45, 0x90, 0x3e,
  0xdf, 0xbe, 0x13, 0xbf, 0x51, 0xa6, 0x9c, 0xbe, 0xdb, 0x47, 0x51, 0xbf,
  0xc9, 0x1d, 0xdb, 0xbd, 0xe8, 0x2d, 0xcd, 0xbe, 0x5c, 0x99, 0x8d, 0xbf,
  0xd4, 0x99, 0xc4, 0x3e, 0x22, 0x86, 0x62, 0xbf, 0x97, 0x57, 0x0e, 0xbf,
  0x7d, 0x3f, 0xc2, 0x3e, 0x4b, 0x69, 0x95, 0xbe, 0x15, 0x48, 0xc6, 0xbe,
  0x2f, 0x39, 0x63, 0xbe, 0xfc, 0x8b, 0x02, 0xbf, 0xdd, 0x9b, 0x3a, 0xbe,
  0x99, 0xb9, 0x08, 0x3e, 0x53, 0x11, 0x6d, 0xbf, 0x45, 0xdc, 0xc1, 0x3e,
  0x28, 0xc3, 0x29, 0x3e, 0x48, 0xbb, 0x34, 0x3d, 0x6a, 0x6d, 0x26, 0xbe,
  0x41, 0x5f, 0x34, 0xbd, 0x14, 0xd9, 0xcd, 0xbe, 0xac, 0xde, 0xfd, 0xbe,
  0x10, 0x36, 0xe9, 0xbe, 0xe0, 0xdc, 0x52, 0x3f, 0x27, 0xc1, 0x96, 0xbf,
  0xeb, 0x60, 0x69, 0x3f, 0x82, 0xb8, 0xea, 0x3e, 0xc5, 0x7b, 0x72, 0xbe,
  0xd8, 0x89, 0x90, 0x3e, 0x59, 0x87, 0x90, 0xbf, 0x85, 0x2a, 0x09, 0x3f,
  0x01, 0xe0, 0xf9, 0xbd, 0x54, 0xe9, 0x19, 0xbf, 0xa2, 0xac, 0xfb, 0xbd,
  0x8f, 0xee, 0x9c, 0x3c, 0xe1, 0xbb, 0x58, 0xbd, 0xc9, 0x1b, 0x56, 0xbf,
  0x9c, 0x29, 0x5e, 0xbe, 0xce, 0xbc, 0x99, 0xbe, 0x4d, 0x0d, 0x0b, 0xbf,
  0x17, 0xac, 0x2a, 0x3e, 0x97, 0x22, 0x43, 0x3d, 0x5b, 0x42, 0x0c, 0x3e,
  0x95, 0xbc, 0x4e, 0xbf, 0x0b, 0x3a, 0x0c, 0x3e, 0xd1, 0x9d, 0x97, 0x3d,
  0x80, 0x06, 0xa7, 0x3e, 0x95, 0xf5, 0xae, 0xbf, 0xb8, 0xb8, 0x43, 0x3e,
  0x38, 0x65, 0x05, 0xbf, 0x84, 0x79, 0x61, 0xbe, 0x1a, 0xfb, 0xc9, 0xbe,
  0x50, 0x3a, 0xab, 0x3d, 0xe7, 0x43, 0x60, 0xbf, 0xe4, 0xa5, 0xc3, 0xbe,
  0xa2, 0x90, 0xba, 0x3e, 0x33, 0xf5, 0x9b, 0x3d, 0x2f, 0xe9, 0x89, 0x3e,
  0xa4, 0x9a, 0x39, 0xbf, 0xf3, 0x64, 0x2e, 0xbf, 0x11, 0x94, 0x92, 0xbe,
  0x8f, 0xcd, 0x19, 0xbf, 0x90, 0xd8, 0xb8, 0x3c, 0xb9, 0x53, 0xca, 0x3e,
  0xf1, 0x56, 0x21, 0xbd, 0x15, 0xe2, 0x5d, 0xbe, 0x18, 0x0c, 0x82, 0x3e,
  0xbb, 0x3e, 0x5a, 0x3e, 0x35, 0x65, 0x32, 0x3f, 0xfd, 0xb5, 0x67, 0xbf,
  0x6b, 0x4a, 0x81, 0x3e, 0x47, 0xed, 0x46, 0xb9, 0x7d, 0xb9, 0x98, 0x3d,
  0xc2, 0x90, 0x47, 0xbe, 0xc2, 0xf4, 0xde, 0xbe, 0x9a, 0xfe, 0x11, 0x3f,
  0x26, 0x29, 0xf7, 0x3d, 0x4b, 0xad, 0x38, 0xbe, 0xb2, 0xe4, 0x99, 0x3d,
  0xe9, 0xfb, 0x36, 0x3c, 0xcd, 0x2d, 0x22, 0x3e, 0x93, 0x5c, 0x08, 0x3e,
  0x01, 0x59, 0x3d, 0x3e, 0xda, 0xcd, 0x07, 0xbe, 0x4d, 0x3b, 0x86, 0xbe,
  0xa6, 0xec, 0xa2, 0x3e, 0x59, 0x4b, 0x07, 0xbe, 0x09, 0xfd, 0x5c, 0x3e,
  0x76, 0xc3, 0xf9, 0xbd, 0x17, 0x77, 0x18, 0x3c, 0xe4, 0xb1, 0x29, 0x3e,
  0xb2, 0xe6, 0xda, 0xbf, 0x0b, 0xa8, 0x58, 0x3d, 0x08, 0x8e, 0x65, 0xbd,
  0x84, 0x11, 0x03, 0x3e, 0xf1, 0xf9, 0x82, 0xbe, 0x19, 0x1b, 0x7d, 0xbe,
  0xe5, 0x05, 0xde, 0xbe, 0x34, 0x52, 0x7f, 0xbe, 0xcb, 0xed, 0x12, 0xbe,
  0xbd, 0x7b, 0x4b, 0xbd, 0xe2, 0x2c, 0xa9, 0xbe, 0xc1, 0x81, 0x3d, 0xbe,
  0x1e, 0x6b, 0xda, 0xbd, 0xae, 0xf8, 0xc9, 0x3e, 0x6b, 0x6f, 0x3a, 0xbe,
  0xf7, 0x89, 0x0d, 0xbe, 0xf8, 0xaa, 0xfe, 0x3d, 0xde, 0xf7, 0xa9, 0xbd,
  0x6b, 0x05, 0xab, 0xbd, 0x2d, 0x9b, 0xaf, 0x3e, 0x42, 0x88, 0xf1, 0x3d,
  0x66, 0xed, 0x89, 0x3e, 0x71, 0xb6, 0x8d, 0xbf, 0x87, 0xd9, 0x34, 0x3e,
  0xf1, 0x41, 0x9a, 0xbe, 0xb1, 0x37, 0x11, 0xbf, 0x97, 0x5d, 0xf4, 0xbe,
  0x5d, 0x02, 0x9b, 0x3e, 0xfa, 0x9b, 0xb3, 0xbe, 0x9c, 0x99, 0xca, 0xbd,
  0x6b, 0xac, 0xce, 0xbd, 0x92, 0x22, 0xa6, 0x3d, 0x13, 0x2f, 0xe0, 0x3e,
  0x0f, 0xb2, 0x6d, 0xbf, 0xd9, 0x2e, 0x71, 0xbe, 0x60, 0x39, 0xe3, 0xbd,
  0xfb, 0x72, 0x33, 0xbf, 0x47, 0xd2, 0x08, 0xbf, 0xae, 0x0d, 0x24, 0x3e,
  0xb3, 0x95, 0x72, 0x3d, 0xd6, 0x58, 0x2c, 0xbf, 0xbb, 0xe2, 0x43, 0xbe,
  0x2e, 0x94, 0x85, 0x3a, 0x78, 0xda, 0xce, 0x3e, 0xba, 0x56, 0x99, 0xbf,
  0x11, 0xfe, 0x17, 0x3e, 0x22, 0xbc, 0x4a, 0xbf, 0x07, 0x01, 0xa0, 0x3d,
  0x3e, 0x9a, 0xde, 0x3e, 0x40, 0x08, 0x8d, 0xbc, 0x6d, 0xe6, 0xc1, 0xbe,
  0x06, 0x1c, 0x0b, 0xbf, 0x7d, 0x62, 0x9d, 0x3d, 0x50, 0xf3, 0x58, 0xbe,
  0x8b, 0x58, 0xa5, 0x3e, 0x5c, 0x08, 0xa2, 0xbe, 0xe1, 0xc3, 0xdc, 0x3e,
  0x11, 0x87, 0x8d, 0x3e, 0x5b, 0x48, 0xf7, 0x3d, 0x71, 0x7d, 0x8e, 0x3e,
  0x33, 0x28, 0x3c, 0x3d, 0xe7, 0x11, 0x23, 0xbf, 0xeb, 0x6e, 0xb4, 0xbe,
  0x06, 0xad, 0x82, 0x3c, 0x55, 0x10, 0x1b, 0x3e, 0x40, 0x11, 0x4a, 0xbf,
  0x6f, 0xce, 0x71, 0x3f, 0xce, 0xd8, 0xff, 0xff, 0x04, 0x00, 0x00, 0x00,
  0x58, 0x00, 0x00, 0x00, 0x00, 0x00, 0x00, 0x00, 0x00, 0x00, 0x00, 0x00,
  0x00, 0x00, 0x00, 0x00, 0x00, 0x00, 0x00, 0x00, 0x00, 0x00, 0x00, 0x00,
  0x00, 0x00, 0x00, 0x00, 0x00, 0x00, 0x00, 0x00, 0x00, 0x00, 0x00, 0x00,
  0x00, 0x00, 0x00, 0x00, 0x00, 0x00, 0x00, 0x00, 0x00, 0x00, 0x00, 0x00,
  0x00, 0x00, 0x00, 0x00, 0x00, 0x00, 0x00, 0x00, 0x00, 0x00, 0x00, 0x00,
  0x00, 0x00, 0x00, 0x00, 0x00, 0x00, 0x00, 0x00, 0x00, 0x00, 0x00, 0x00,
  0x00, 0x00, 0x00, 0x00, 0x00, 0x00, 0x00, 0x00, 0x00, 0x00, 0x00, 0x00,
  0x00, 0x00, 0x00, 0x00, 0x00, 0x00, 0x00, 0x00, 0x32, 0xd9, 0xff, 0xff,
  0x04, 0x00, 0x00, 0x00, 0xa0, 0x05, 0x00, 0x00, 0xa1, 0x5c, 0xad, 0xbe,
  0x7c, 0x96, 0x54, 0xbe, 0xb4, 0x34, 0xd1, 0xbd, 0xa6, 0x69, 0x21, 0x3d,
  0x74, 0x92, 0x4e, 0xbd, 0xa4, 0x16, 0x8f, 0xbf, 0x3f, 0x74, 0xcf, 0xbc,
  0x16, 0xca, 0xe3, 0x3e, 0x6c, 0xcb, 0xbb, 0xbe, 0x82, 0x29, 0x15, 0xbf,
  0x20, 0x67, 0xda, 0x3e, 0x3c, 0x57, 0x96, 0xbd, 0x9c, 0xd9, 0xd0, 0x3e,
  0xc7, 0xb9, 0x00, 0xbf, 0x54, 0xf7, 0xa7, 0xbe, 0xfb, 0xaa, 0x65, 0x3d,
  0xeb, 0xda, 0x34, 0xbf, 0xd8, 0xa2, 0x77, 0x3e, 0x21, 0x3d, 0xf5, 0x3e,
  0xdb, 0xaf, 0x0e, 0xbf, 0xc5, 0x0c, 0x9e, 0xbd, 0x2e, 0xa3, 0x59, 0xbe,
  0xc9, 0xb8, 0xef, 0xbd, 0x83, 0xa4, 0x3f, 0xbc, 0x53, 0xa5, 0x8b, 0xbe,
  0x3a, 0x3a, 0x80, 0xbf, 0xb2, 0x7a, 0x39, 0x3e, 0xfc, 0xba, 0xd1, 0x3e,
  0xb8, 0x64, 0xe4, 0xbe, 0xb6, 0x0a, 0x1d, 0xbf, 0x76, 0xd6, 0x8d, 0x3c,
  0x0e, 0x9e, 0x48, 0x3d, 0xc2, 0xd8, 0xc1, 0x3e, 0x36, 0x85, 0xb3, 0xbe,
  0xee, 0xc4, 0x10, 0xbf, 0x26, 0x2d, 0xf1, 0x3d, 0x20, 0x72, 0x22, 0xbf,
  0x6d, 0x5f, 0x75, 0x3e, 0xdf, 0x02, 0x23, 0x3f, 0x90, 0x05, 0x92, 0xbe,
  0xcd, 0x27, 0xcc, 0xb9, 0x7d, 0x5a, 0x4c, 0xbd, 0x41, 0x8a, 0x0e, 0xbe,
  0x2b, 0xef, 0xae, 0x3e, 0xe5, 0x63, 0x25, 0xbd, 0xd3, 0x5b, 0xab, 0xbe,
  0xac, 0x22, 0xe1, 0xbd, 0x67, 0x1f, 0xcb, 0x3d, 0x5e, 0x94, 0x01, 0xbe,
  0xb5, 0x87, 0x1e, 0xbf, 0x7a, 0x72, 0xb5, 0x3e, 0x12, 0x70, 0xde, 0x3e,
  0x7a, 0xe9, 0x3a, 0x3e, 0x5c, 0x85, 0x0b, 0x3c, 0x39, 0x0a, 0x56, 0xbe,
  0xa6, 0x86, 0x0c, 0xbd, 0x76, 0xcb, 0xb0, 0xbd, 0x54, 0xce, 0xe4, 0xbd,
  0x98, 0xcd, 0x03, 0x3e, 0x9f, 0xf2, 0x1d, 0xbd, 0x17, 0x31, 0x34, 0x3e,
  0x05, 0xae, 0x34, 0xbb, 0x55, 0xf8, 0x61, 0xbe, 0x51, 0x95, 0x30, 0x3f,
  0xd8, 0xb8, 0x7f, 0x3f, 0x0f, 0x90, 0xd3, 0x3d, 0xf1, 0x0e, 0x0a, 0x3e,
  0x2f, 0x6f, 0x28, 0xbf, 0x0e, 0x44, 0xa0, 0xbd, 0x16, 0xf2, 0x15, 0x3f,
  0x31, 0x26, 0x48, 0x3e, 0xed, 0x50, 0x3b, 0x3e, 0xf6, 0x2e, 0x5b, 0xbf,
  0xc4, 0x19, 0x6e, 0x3e, 0xaa, 0x63, 0xd9, 0x3d, 0x78, 0x94, 0x2e, 0xbe,
  0x2f, 0x00, 0x16, 0x3e, 0x79, 0x85, 0x6f, 0xbe, 0xbc, 0xf0, 0x0f, 0xbf,
  0xbf, 0x2a, 0x99, 0x3e, 0x87, 0x6e, 0xf3, 0x3e, 0x37, 0xeb, 0x38, 0xbd,
  0x4e, 0x27, 0xa9, 0xbe, 0x29, 0xa4, 0x9d, 0x3e, 0xa9, 0xd8, 0xe1, 0x3e,
  0x81, 0x8e, 0x20, 0xbd, 0x9f, 0xb3, 0x1c, 0x3e, 0x2a, 0x52, 0xb5, 0xbe,
  0x25, 0x4a, 0x58, 0x3d, 0x09, 0x17, 0x9a, 0x3e, 0x79, 0x4b, 0x6a, 0xbe,
  0x1b, 0xe6, 0x4d, 0x3e, 0xd8, 0x95, 0xb4, 0xbe, 0x23, 0xb6, 0x99, 0xbe,
  0x69, 0x19, 0x05, 0x3e, 0xcd, 0xc7, 0x07, 0xbf, 0xf2, 0xcb, 0xbe, 0x3a,
  0x4f, 0x1d, 0x9e, 0xbc, 0x6e, 0x87, 0xd9, 0x3c, 0xd9, 0xde, 0x1a, 0x3e,
  0xca, 0xe1, 0x2c, 0x3e, 0x5b, 0x92, 0x65, 0xbe, 0xf8, 0x48, 0x83, 0xbf,
  0x3a, 0x3a, 0x52, 0xbe, 0x44, 0xba, 0xb5, 0xbe, 0xa4, 0x0c, 0xd1, 0xbe,
  0xf5, 0x29, 0xb3, 0x3e, 0x5d, 0x39, 0xa2, 0xbf, 0xca, 0x4f, 0xf0, 0x3e,
  0x76, 0xbf, 0x25, 0x3e, 0xfd, 0xd5, 0x16, 0xbf, 0xea, 0x24, 0x15, 0xbe,
  0xc9, 0xb7, 0xac, 0xbf, 0x5a, 0xbe, 0xeb, 0xbe, 0x22, 0xdf, 0x36, 0xbf,
  0x12, 0x06, 0x57, 0xbf, 0xb9, 0x61, 0xdf, 0xbe, 0xed, 0x6e, 0xc0, 0xbe,
  0xae, 0x56, 0x3c, 0xbf, 0x81, 0xec, 0xea, 0x3e, 0x61, 0x2d, 0x90, 0xbf,
  0x21, 0xa2, 0x52, 0x3e, 0x60, 0xe8, 0x7d, 0x3f, 0x3c, 0xbd, 0x29, 0xbe,
  0x99, 0xe8, 0x79, 0x3e, 0x5a, 0x21, 0xb0, 0x3e, 0x09, 0x21, 0x1c, 0x3e,
  0x05, 0xa7, 0x2a, 0x3f, 0x0e, 0xed, 0x81, 0x3d, 0x5d, 0xbd, 0x26, 0xbf,
  0x0d, 0x3f, 0xd3, 0xbe, 0x38, 0x26, 0x4d, 0xbf, 0xbd, 0x8e, 0x6b, 0x3d,
  0x55, 0x83, 0x83, 0xbf, 0x70, 0xb7, 0x71, 0xbe, 0xc3, 0x5c, 0x85, 0x3f,
  0x66, 0x1c, 0x29, 0x3e, 0x50, 0x74, 0x03, 0x3f, 0x34, 0x68, 0x10, 0x3b,
  0x10, 0xf7, 0xd7, 0x3e, 0x91, 0x8d, 0x27, 0xbf, 0xa0, 0x58, 0x39, 0xbd,
  0xd4, 0x07, 0x9b, 0x3e, 0x5b, 0xb2, 0x55, 0x3c, 0x08, 0x7e, 0xa8, 0x3e,
  0x2a, 0x56, 0x90, 0x3e, 0xbb, 0x0c, 0xa5, 0xbe, 0xec, 0x06, 0xc1, 0x3e,
  0xe6, 0xe2, 0xc2, 0xbe, 0xcb, 0xdb, 0xfb, 0xbe, 0x13, 0x0a, 0xc2, 0xbe,
  0x86, 0x86, 0x01, 0xbf, 0xd2, 0xdb, 0x20, 0xbf, 0xe7, 0x14, 0x94, 0x3c,
  0x7d, 0x88, 0x91, 0xbd, 0x9e, 0x8f, 0x39, 0x3f, 0x44, 0x21, 0x42, 0x3e,
  0xb4, 0x07, 0xec, 0x3e, 0x46, 0x9c, 0x0b, 0x3d, 0x73, 0x96, 0xdb, 0x3d,
  0x81, 0xff, 0xad, 0xbf, 0x2d, 0xea, 0x7e, 0x3c, 0xf9, 0x1a, 0x1a, 0x3f,
  0x9f, 0xe6, 0xe5, 0xbe, 0x6f, 0x03, 0xd8, 0x3e, 0x3e, 0x46, 0x8a, 0x3e,
  0x0b, 0xfd, 0xdc, 0x3e, 0x83, 0x71, 0x57, 0x3e, 0x5b, 0x9a, 0xa7, 0xbe,
  0xa0, 0x9c, 0x68, 0x3c, 0x9d, 0xc3, 0x12, 0x3e, 0x3f, 0x49, 0xbb, 0xbf,
  0xf7, 0xb1, 0x39, 0xbe, 0x98, 0x72, 0x51, 0xbf, 0x52, 0xb7, 0x16, 0x3e,
  0x1f, 0x1b, 0x0b, 0x3f, 0xa0, 0x2e, 0x3d, 0x3e, 0x1c, 0x9d, 0x5f, 0x3d,
  0x30, 0x13, 0x0a, 0x3e, 0x2f, 0x64, 0x92, 0xbc, 0xcd, 0xe4, 0xb7, 0x3d,
  0x4d, 0x55, 0x14, 0xbe, 0x47, 0x0f, 0x51, 0xbd, 0xa5, 0x27, 0xdc, 0xbe,
  0xb7, 0x26, 0x13, 0x3e, 0x6c, 0x19, 0xcd, 0x3a, 0xbe, 0x1f, 0x16, 0x3e,
  0x52, 0x63, 0x8a, 0x3d, 0xf7, 0xbe, 0xf5, 0x3d, 0xc2, 0x12, 0x37, 0x3e,
  0xfb, 0x9b, 0x1e, 0xbf, 0x85, 0xac, 0x1a, 0xbe, 0x31, 0x71, 0x29, 0x3f,
  0x1f, 0xcf, 0x43, 0x3e, 0x3f, 0x04, 0x23, 0x3f, 0xaf, 0x7f, 0x32, 0xbf,
  0x01, 0xe9, 0x94, 0xbe, 0xd4, 0x8b, 0xee, 0x3e, 0xa3, 0x2d, 0x19, 0x3f,
  0xc1, 0x7c, 0x50, 0xbf, 0x7a, 0x28, 0xad, 0x3e, 0x8c, 0x96, 0x1b, 0xbe,
  0x6c, 0xe9, 0x2c, 0xbf, 0xf0, 0xbb, 0xd1, 0x3d, 0xec, 0x46, 0xf8, 0xbd,
  0x23, 0x87, 0x08, 0xbd, 0x49, 0x43, 0xe9, 0xbe, 0x55, 0xd0, 0xfa, 0xbe,
  0xc8, 0x07, 0x32, 0xbe, 0x64, 0xf3, 0xd0, 0xbe, 0xd8, 0xd1, 0xa2, 0xbe,
  0x46, 0xbd, 0x0d, 0x3e, 0x27, 0x1b, 0x34, 0xbe, 0xc6, 0x82, 0xd4, 0x3e,
  0xef, 0xd6, 0x5c, 0x3e, 0x14, 0x8e, 0x01, 0xbf, 0x27, 0x79, 0x81, 0xbe,
  0x2c, 0xcc, 0x62, 0x3f, 0x0f, 0xc8, 0x6b, 0x3e, 0x0b, 0x31, 0x88, 0x3e,
  0x2d, 0x21, 0x2f, 0xbd, 0xcc, 0x18, 0x6f, 0xbe, 0xde, 0xa1, 0x0e, 0xbe,
  0x6c, 0x0a, 0xbd, 0x3e, 0xe3, 0xd0, 0xf3, 0xbe, 0x73, 0xfc, 0xd8, 0xbe,
  0xa4, 0x52, 0x58, 0xbf, 0xad, 0xdb, 0xfd, 0xbe, 0xb9, 0x60, 0x5b, 0xbf,
  0x94, 0x40, 0xb6, 0x3c, 0x95, 0x5c, 0x8d, 0xbe, 0x24, 0x71, 0xf2, 0x3e,
  0xac, 0xd6, 0x05, 0xbf, 0xfb, 0x8d, 0x06, 0x3f, 0x1b, 0x54, 0x51, 0xbf,
  0x35, 0xb5, 0xb3, 0x3d, 0x19, 0x27, 0x48, 0xbe, 0x21, 0xe2, 0x00, 0x3e,
  0x07, 0x2e, 0x75, 0xbf, 0x9c, 0x70, 0x7a, 0x3e, 0x5a, 0x4f, 0xe0, 0xbe,
  0xf8, 0x51, 0x3e, 0x3e, 0xc5, 0x5e, 0x05, 0x3f, 0x65, 0x63, 0xb2, 0xbe,
  0x6c, 0xdc, 0x89, 0xbe, 0x8f, 0xe9, 0x98, 0x3e, 0x35, 0xd8, 0x5a, 0x3e,
  0x9f, 0xd2, 0x81, 0x3e, 0xdb, 0x10, 0x58, 0xbe, 0xbe, 0x30, 0xcb, 0x3e,
  0x51, 0x87, 0xb6, 0x3e, 0x38, 0xb6, 0x20, 0xbf, 0x4e, 0x4b, 0xde, 0x3e,
  0x77, 0xf4, 0x3b, 0xbe, 0x69, 0xad, 0x87, 0xb9, 0xa6, 0x91, 0x1d, 0xbd,
  0xea, 0x43, 0x47, 0x3e, 0x3f, 0x61, 0x99, 0xbe, 0x5a, 0x46, 0xe0, 0xbc,
  0xdd, 0x10, 0x62, 0xbf, 0x53, 0xa5, 0x14, 0x3f, 0xfe, 0xd4, 0x52, 0x3d,
  0x09, 0x93, 0x5f, 0x3e, 0xe8, 0xa4, 0xfd, 0xbe, 0x57, 0x84, 0xdc, 0x3b,
  0x66, 0x8e, 0x8b, 0x3e, 0xea, 0xe8, 0x08, 0xbf, 0x9b, 0x27, 0xea, 0x3e,
  0x83, 0x43, 0x91, 0x3e, 0x58, 0xe5, 0x4e, 0xbc, 0xff, 0x69, 0x00, 0x3e,
  0x11, 0xa7, 0xcc, 0xbe, 0x79, 0xe1, 0x4d, 0x3e, 0xe7, 0x9d, 0x16, 0xbe,
  0x9b, 0x7a, 0x96, 0x3d, 0xe7, 0x71, 0xe6, 0xbc, 0x71, 0xdb, 0x6b, 0x3e,
  0x92, 0x90, 0xb9, 0xbb, 0x5b, 0xeb, 0x28, 0xbe, 0x84, 0x88, 0x36, 0xbe,
  0x15, 0x31, 0x4c, 0x3f, 0xcd, 0x78, 0x12, 0x3e, 0x3d, 0x6a, 0x23, 0xbf,
  0x6f, 0xcb, 0x02, 0x3e, 0x99, 0x04, 0x27, 0xbe, 0x28, 0x24, 0x82, 0x3e,
  0xd4, 0x30, 0xfb, 0xbd, 0x81, 0x1f, 0x6a, 0xbe, 0xfa, 0x3f, 0x4d, 0x3d,
  0x07, 0x29, 0x01, 0xbf, 0x5d, 0xbd, 0xaf, 0x3d, 0x4d, 0x83, 0xab, 0x3e,
  0x23, 0xa6, 0x32, 0xbe, 0x79, 0x34, 0x44, 0xbe, 0x03, 0xdb, 0x73, 0xbc,
  0xf9, 0x6a, 0xe0, 0x3d, 0xb8, 0x48, 0xb4, 0x3e, 0x01, 0x16, 0x47, 0x3f,
  0x08, 0x46, 0x9e, 0x3e, 0xbd, 0x59, 0x20, 0x3f, 0x9c, 0x53, 0xd9, 0xbd,
  0x29, 0x78, 0xb8, 0x3d, 0x10, 0x22, 0x1b, 0x3e, 0xec, 0xd9, 0x87, 0xbe,
  0x0e, 0xa7, 0xf8, 0x3d, 0x38, 0xc3, 0xfc, 0xbd, 0x0a, 0x4d, 0xae, 0x3e,
  0x99, 0x16, 0x64, 0xbe, 0x3a, 0xe6, 0x39, 0xbe, 0x48, 0xb1, 0x18, 0x3d,
  0x5d, 0x80, 0x28, 0x3e, 0x4c, 0xad, 0xa2, 0xbd, 0x44, 0x6a, 0x33, 0x3c,
  0xb8, 0x76, 0x09, 0xbf, 0xe0, 0x14, 0x92, 0xbd, 0xb7, 0x5e, 0xb4, 0x3d,
  0x45, 0x0c, 0x6b, 0x3e, 0x29, 0xde, 0x85, 0xbe, 0xfe, 0x09, 0x1e, 0xbe,
  0x7a, 0xdb, 0x83, 0x3e, 0x8c, 0xd0, 0x88, 0xbe, 0x46, 0xd6, 0x46, 0x3d,
  0xa9, 0x28, 0x62, 0x3e, 0x34, 0x64, 0xc8, 0xbe, 0x68, 0x84, 0xde, 0x3d,
  0x65, 0x40, 0x7a, 0x3e, 0xc2, 0x6e, 0x98, 0xbe, 0x93, 0xf7, 0x30, 0x3e,
  0x50, 0xc8, 0x0e, 0xbe, 0xcd, 0x6f, 0x53, 0x3e, 0xdd, 0x4d, 0xe9, 0xbd,
  0x10, 0xd8, 0xe4, 0xbe, 0x38, 0x04, 0xee, 0x3c, 0x38, 0xcc, 0xf9, 0xbe,
  0x30, 0xbe, 0x92, 0xbd, 0x72, 0xbf, 0x0f, 0x3e, 0x55, 0x76, 0xd9, 0x3e,
  0x5d, 0xbd, 0xaf, 0xbe, 0x30, 0xf6, 0x22, 0xbe, 0x19, 0xec, 0x7c, 0xbd,
  0xaf, 0xc6, 0x11, 0xbe, 0xb8, 0xe6, 0x23, 0x3e, 0xce, 0xab, 0x70, 0xbe,
  0xbf, 0xc4, 0xb1, 0xbe, 0xea, 0x64, 0x5c, 0xbd, 0xe9, 0xc0, 0x5f, 0x3e,
  0x77, 0xc7, 0xe7, 0xbe, 0x43, 0x0c, 0x5a, 0x3e, 0x20, 0x98, 0x88, 0xbf,
  0x6b, 0x3c, 0x70, 0xbe, 0xf2, 0x28, 0x9e, 0xbd, 0xc8, 0x5b, 0x52, 0xbe,
  0x32, 0xfb, 0x58, 0x3c, 0x73, 0x06, 0x28, 0xbf, 0x8e, 0xc5, 0x3e, 0xbe,
  0xfc, 0xb1, 0xfc, 0xbd, 0x44, 0x79, 0xd0, 0x3e, 0xbd, 0xc2, 0xc1, 0x3e,
  0xb9, 0x7c, 0x2f, 0x3a, 0x67, 0x10, 0x8a, 0x3c, 0xde, 0xde, 0xff, 0xff,
  0x04, 0x00, 0x00, 0x00, 0x40, 0x06, 0x00, 0x00, 0x25, 0x96, 0xd1, 0x3d,
  0x09, 0x14, 0x0d, 0x3f, 0x5e, 0x71, 0x40, 0xbd, 0x38, 0xc7, 0x7e, 0xbe,
  0x6f, 0x1f, 0x87, 0x3f, 0xb8, 0x2a, 0x02, 0xbe, 0x6f, 0x2d, 0x47, 0xbe,
  0x9d, 0x97, 0xed, 0x3e, 0x8f, 0x87, 0x1f, 0xbe, 0xc1, 0x86, 0xcd, 0x3e,
  0xad, 0x2b, 0xce, 0x3e, 0x92, 0x84, 0xde, 0xbe, 0x5b, 0x3c, 0xd9, 0x3e,
  0x1f, 0xa7, 0x03, 0xbf, 0xf0, 0xf9, 0xa6, 0x3e, 0xbb, 0x10, 0x38, 0x3e,
  0x79, 0xf0, 0xd5, 0x3e, 0xe6, 0xc2, 0x8e, 0x3e, 0xf7, 0x24, 0xb0, 0x3f,
  0x3a, 0x4b, 0x3c, 0xbf, 0x6f, 0x8a, 0x83, 0xbe, 0xcc, 0xa2, 0x10, 0xbf,
  0xbe, 0x11, 0xae, 0x3e, 0x56, 0x12, 0x21, 0x3f, 0xf3, 0x92, 0x20, 0x3e,
  0x44, 0x0c, 0x10, 0xbe, 0x95, 0x2d, 0x84, 0xbe, 0x37, 0x84, 0xec, 0xbd,
  0xae, 0x78, 0x21, 0x3f, 0x22, 0x1a, 0xa8, 0x3e, 0x79, 0x99, 0x16, 0xbf,
  0x6b, 0x83, 0xe4, 0xbd, 0xd8, 0xa8, 0x0a, 0xbf, 0x08, 0x65, 0x3a, 0xbe,
  0xc6, 0xc6, 0xed, 0x3c, 0xe3, 0x47, 0x57, 0xbe, 0x95, 0xb8, 0x6a, 0xbd,
  0xc5, 0x6a, 0xc4, 0xbc, 0x0d, 0x9c, 0x27, 0xbe, 0x2b, 0xad, 0x1f, 0xbf,
  0xd2, 0xbb, 0x21, 0xbf, 0x8c, 0xba, 0x17, 0xbf, 0x87, 0x4b, 0xf6, 0x3c,
  0x8f, 0x9b, 0xc9, 0xbe, 0xc5, 0x91, 0x12, 0xbf, 0xf9, 0xa4, 0x78, 0xbb,
  0x2a, 0xf1, 0x9f, 0xbf, 0x1d, 0xd7, 0xbe, 0xbd, 0xba, 0x58, 0x06, 0xbf,
  0x19, 0x3c, 0xc6, 0xbd, 0x53, 0x90, 0x4e, 0x3e, 0xac, 0x87, 0xb3, 0x3e,
  0xb2, 0x33, 0x5a, 0xbe, 0x45, 0xce, 0x0e, 0x3f, 0x20, 0xe7, 0x4a, 0x3e,
  0xfd, 0x9e, 0x60, 0x3d, 0x4d, 0xc4, 0x80, 0xbe, 0x99, 0xa4, 0xc3, 0x3d,
  0x64, 0xf4, 0x79, 0xbf, 0xae, 0x94, 0x80, 0xbe, 0x16, 0xf8, 0x61, 0x3e,
  0x10, 0x8c, 0xf0, 0xbe, 0x58, 0xa3, 0xb8, 0x3d, 0xe7, 0xb3, 0x43, 0xbe,
  0x61, 0x22, 0xc1, 0xbd, 0xdc, 0xeb, 0x05, 0xbf, 0xcc, 0x1e, 0x00, 0xbf,
  0x9a, 0x68, 0xc3, 0x3e, 0xf0, 0x6f, 0x88, 0xbe, 0x12, 0x1a, 0xb9, 0x3e,
  0xbb, 0xa5, 0x70, 0xbd, 0x70, 0x24, 0xc8, 0xbd, 0x09, 0xbf, 0x94, 0x3d,
  0x50, 0xf0, 0x03, 0x3f, 0x44, 0x3f, 0x8b, 0x3e, 0x13, 0xa9, 0xb8, 0xbe,
  0x49, 0xe7, 0xca, 0xbd, 0x04, 0x0f, 0xf9, 0x3d, 0x50, 0xa7, 0xdd, 0x3f,
  0x57, 0xfe, 0x35, 0xbf, 0x76, 0x9a, 0x0c, 0x3e, 0x77, 0x76, 0x9c, 0xbc,
  0x64, 0xe6, 0x43, 0xbf, 0xf6, 0x77, 0xbe, 0x3d, 0xb0, 0xeb, 0x9b, 0xbd,
  0x2e, 0xf3, 0x9c, 0xbe, 0xc6, 0x8b, 0xff, 0xbe, 0xf9, 0x73, 0x20, 0x3f,
  0xcd, 0xbf, 0x86, 0xbd, 0x6d, 0x30, 0x00, 0x3f, 0xba, 0xa7, 0x0f, 0x3f,
  0xc6, 0xdb, 0x27, 0xbe, 0xf2, 0x93, 0x34, 0xbf, 0x86, 0xfb, 0x64, 0xbe,
  0xaf, 0xc4, 0xc7, 0xbd, 0xd8, 0x71, 0x06, 0xbf, 0x1f, 0x49, 0xaa, 0x3d,
  0x41, 0x78, 0x34, 0x3e, 0x2e, 0xc7, 0x80, 0x3d, 0xd7, 0x30, 0x1b, 0x3d,
  0xe8, 0xa2, 0x04, 0xbf, 0x24, 0x8a, 0x76, 0x3e, 0x27, 0x2f, 0x08, 0x3f,
  0x84, 0xd8, 0x08, 0x3f, 0x7a, 0xa8, 0x80, 0xbe, 0xdb, 0x20, 0xf2, 0x3d,
  0x1f, 0xcb, 0xab, 0xbe, 0x7f, 0x0b, 0x8c, 0xbe, 0xde, 0x8f, 0xd3, 0x3e,
  0x58, 0x5f, 0x08, 0x3d, 0xfc, 0x1e, 0x7c, 0xbe, 0xb3, 0x1f, 0x10, 0xbe,
  0xc1, 0x80, 0xc5, 0xbe, 0xe7, 0x45, 0x75, 0xbe, 0xed, 0x3c, 0x36, 0xbf,
  0xef, 0xf2, 0xc6, 0xbe, 0xf1, 0x18, 0x17, 0x3f, 0x81, 0x96, 0x41, 0xbf,
  0xec, 0x5e, 0xdc, 0xbe, 0x2f, 0xf7, 0x52, 0xbe, 0x88, 0x6a, 0x62, 0x3f,
  0x1f, 0x1c, 0xa6, 0x3c, 0xa8, 0x7a, 0x67, 0x3e, 0xc2, 0xbd, 0x73, 0xbe,
  0x79, 0xa1, 0x19, 0x3d, 0xf0, 0x9d, 0x53, 0xbe, 0xd1, 0x93, 0xcd, 0xbe,
  0xce, 0x05, 0x3c, 0x3e, 0x63, 0x69, 0xe8, 0xbd, 0x55, 0x55, 0xdb, 0xbd,
  0x7d, 0xdd, 0xd3, 0x3e, 0x33, 0x1c, 0x1c, 0x3f, 0x29, 0x49, 0xd2, 0x3d,
  0x6b, 0xc8, 0x2f, 0x3e, 0xa3, 0x81, 0x5e, 0xbe, 0x24, 0x52, 0x2b, 0xbd,
  0xe6, 0x5f, 0x02, 0xbe, 0x2c, 0x2a, 0x82, 0xbe, 0xce, 0x16, 0x84, 0xbf,
  0xdb, 0x42, 0x09, 0x3f, 0x1b, 0x08, 0x3b, 0xbf, 0x14, 0x37, 0x9f, 0xbf,
  0x77, 0x14, 0xcb, 0xbd, 0x56, 0x67, 0xdb, 0x3e, 0x83, 0xd3, 0xc6, 0xbd,
  0x0c, 0xd6, 0xd0, 0x3d, 0x96, 0xd7, 0x72, 0xbf, 0xf7, 0xec, 0x55, 0xbe,
  0x1d, 0x67, 0x53, 0x3e, 0x57, 0xd9, 0x1b, 0xbd, 0x68, 0x2c, 0xa9, 0xbe,
  0xa0, 0x79, 0x8b, 0xbe, 0x12, 0x5c, 0x9f, 0xbd, 0xbc, 0x5c, 0x92, 0xbd,
  0x3b, 0x98, 0x0c, 0x3e, 0xab, 0x53, 0x7e, 0x3e, 0x01, 0xc3, 0x03, 0xbf,
  0xaa, 0x76, 0xaa, 0xbc, 0x5b, 0x13, 0x37, 0xbf, 0x57, 0x0a, 0xb1, 0xbe,
  0xfd, 0x5a, 0x55, 0xbd, 0x8b, 0x9c, 0xa7, 0x3d, 0x5e, 0x08, 0x9d, 0x3d,
  0x7e, 0x77, 0xe1, 0xbe, 0x56, 0x35, 0x45, 0x3f, 0x29, 0xb7, 0x22, 0xbe,
  0x38, 0xfe, 0x01, 0x3e, 0x3b, 0x99, 0xe0, 0x3d, 0xd8, 0x2a, 0x8f, 0xbc,
  0x01, 0x74, 0xc1, 0xbb, 0xb4, 0x6b, 0x98, 0xbe, 0xb4, 0xd9, 0xa5, 0x3e,
  0x4a, 0x79, 0xc5, 0x3b, 0xbf, 0xe2, 0xa3, 0x3e, 0x14, 0x8d, 0x11, 0xbf,
  0x27, 0x2c, 0xea, 0xbc, 0x37, 0xa0, 0x63, 0x3d, 0xe3, 0x8c, 0xef, 0xbe,
  0x0b, 0x98, 0x9d, 0x3e, 0xaf, 0x52, 0x9d, 0x3f, 0x44, 0x57, 0x64, 0xbf,
  0xc8, 0x26, 0xc5, 0x3e, 0xe4, 0x5c, 0x4b, 0x3e, 0xe0, 0xe5, 0x76, 0xbc,
  0x13, 0x93, 0xd1, 0xbe, 0x98, 0xbb, 0xd5, 0xbe, 0x30, 0x14, 0x7e, 0x3e,
  0xfe, 0x5c, 0xac, 0xbb, 0xea, 0x96, 0x25, 0x3e, 0xa1, 0xac, 0x28, 0xba,
  0xcf, 0x34, 0xb5, 0xbe, 0x79, 0xfe, 0xc8, 0x3e, 0x71, 0x26, 0x68, 0xbb,
  0xbb, 0x1d, 0xc0, 0xbe, 0x94, 0x0e, 0x7b, 0xbe, 0x19, 0x3c, 0xb2, 0xbe,
  0xaa, 0x76, 0x52, 0xbd, 0x38, 0x48, 0x95, 0xbe, 0x20, 0x1d, 0x51, 0xbf,
  0x88, 0x88, 0x37, 0x3f, 0x5a, 0x85, 0xcd, 0x3d, 0x31, 0x8b, 0x27, 0x3e,
  0xea, 0x02, 0xe9, 0x3f, 0x2c, 0xac, 0xd6, 0x3e, 0x4c, 0x5a, 0xd9, 0x3e,
  0xf3, 0xf7, 0x67, 0xbd, 0xcf, 0x92, 0xde, 0x3e, 0x46, 0xa7, 0xb5, 0xbd,
  0x05, 0xd2, 0x4d, 0x3f, 0x23, 0x6a, 0x09, 0xbf, 0x6f, 0x6a, 0xfc, 0x3e,
  0x78, 0x30, 0xe2, 0x3e, 0xd1, 0x56, 0x84, 0x3d, 0xfd, 0xc1, 0xcf, 0x3e,
  0x51, 0xff, 0xda, 0xbd, 0xff, 0xcc, 0x0a, 0x3f, 0x39, 0x09, 0x87, 0x3e,
  0x5e, 0x28, 0xd6, 0x3d, 0x19, 0xcf, 0xfe, 0x3e, 0x48, 0x0b, 0xf7, 0xbe,
  0x0d, 0x58, 0x1c, 0x3c, 0x0d, 0x84, 0xee, 0x3d, 0xd0, 0xf9, 0x07, 0xbe,
  0x53, 0xb0, 0x29, 0xbf, 0x1e, 0x33, 0x19, 0xbe, 0x8a, 0x47, 0xcb, 0xbe,
  0xbb, 0x2d, 0xba, 0xbe, 0xb0, 0x5a, 0xe8, 0xbe, 0xa1, 0x8d, 0x65, 0xbf,
  0xaa, 0xc0, 0x23, 0x3e, 0x54, 0x28, 0x20, 0x3f, 0xb0, 0xa4, 0xbc, 0xbc,
  0x28, 0xb5, 0x20, 0xbd, 0x8e, 0x67, 0xad, 0x3e, 0xc7, 0xbb, 0x2e, 0x3e,
  0x83, 0x97, 0x29, 0xbe, 0x1f, 0x45, 0xb1, 0xbe, 0x75, 0xce, 0xa2, 0xbe,
  0xcc, 0x0d, 0xf5, 0x3f, 0xf3, 0x47, 0x21, 0xbf, 0xd2, 0x73, 0x1f, 0x3d,
  0x7f, 0xfa, 0xa1, 0xbe, 0xfc, 0xa7, 0x94, 0xbc, 0x18, 0x0e, 0xa7, 0x3e,
  0x95, 0xf1, 0xa2, 0xbe, 0x86, 0xca, 0x72, 0x3e, 0x40, 0x0c, 0xaa, 0xbf,
  0xda, 0x99, 0x00, 0x3d, 0xf2, 0xf2, 0x89, 0xbe, 0x9b, 0xd1, 0x3f, 0xbf,
  0xc5, 0x12, 0x23, 0x3e, 0xae, 0xbd, 0xe8, 0x3d, 0xae, 0xa5, 0x01, 0xbe,
  0x4f, 0xdb, 0xd7, 0x3b, 0x7b, 0xb7, 0xfc, 0x3e, 0x24, 0xba, 0x73, 0xba,
  0x9a, 0x10, 0x48, 0x3e, 0x9a, 0x79, 0xe1, 0xbe, 0xe9, 0x32, 0xcf, 0xbe,
  0x2c, 0x57, 0x9b, 0xbf, 0x8d, 0xbb, 0x81, 0x3e, 0xd2, 0xcd, 0x96, 0xbd,
  0x19, 0xa2, 0xfe, 0x3e, 0xf8, 0x60, 0xff, 0xbc, 0x8b, 0x3a, 0xb9, 0x3e,
  0x4f, 0x34, 0xd7, 0xbd, 0x95, 0xdf, 0x21, 0xbe, 0x60, 0xef, 0x02, 0xbe,
  0x58, 0xca, 0x07, 0x3c, 0x50, 0x73, 0x4f, 0x3e, 0x79, 0x41, 0x02, 0xbe,
  0x31, 0x0f, 0x19, 0xbe, 0x98, 0xaa, 0x69, 0xbe, 0x88, 0xf0, 0x83, 0x3d,
  0xb2, 0x69, 0x1f, 0x3e, 0xce, 0xae, 0x98, 0x3e, 0x65, 0xb0, 0xed, 0x3d,
  0x95, 0xa3, 0xc0, 0xbd, 0x52, 0xb3, 0x8b, 0x3f, 0x08, 0xe3, 0x55, 0xbf,
  0x69, 0x00, 0x69, 0x3e, 0x0b, 0xfb, 0x6c, 0x3d, 0xe6, 0x73, 0x12, 0xbf,
  0x00, 0x0b, 0x03, 0x3f, 0xc6, 0x1d, 0xe6, 0xbe, 0x62, 0x8e, 0x6a, 0x3e,
  0x70, 0x62, 0x3b, 0xbd, 0xe3, 0x37, 0xbd, 0x3d, 0x9c, 0x84, 0xea, 0xbd,
  0x85, 0x7f, 0xd8, 0xbd, 0xcb, 0xd7, 0x8c, 0x3e, 0xd8, 0xea, 0x26, 0x3f,
  0xac, 0x82, 0x17, 0xbf, 0xaa, 0xc7, 0x15, 0xbd, 0x0b, 0x93, 0xe5, 0xbe,
  0xd8, 0x61, 0xf6, 0xbe, 0xe8, 0xe3, 0xa6, 0x3e, 0x0c, 0x74, 0xcf, 0xbe,
  0x60, 0xf9, 0xc9, 0xbe, 0xd6, 0xba, 0x49, 0xbf, 0x42, 0x0d, 0x88, 0xbe,
  0x8b, 0xaa, 0xcd, 0xbc, 0x94, 0xd3, 0xfd, 0xbe, 0x0f, 0x03, 0x59, 0xbf,
  0x8c, 0x83, 0xa4, 0xbe, 0xa3, 0x99, 0x1c, 0xbf, 0xe2, 0x6d, 0x0c, 0xbf,
  0xf5, 0xfb, 0xfe, 0xbe, 0x13, 0xa4, 0x33, 0xbf, 0x28, 0xff, 0x27, 0xbe,
  0xba, 0xe9, 0x49, 0x3e, 0x73, 0x43, 0x5e, 0x3e, 0xc5, 0x8e, 0x16, 0xbd,
  0x12, 0xba, 0xbb, 0xbd, 0xb5, 0x1c, 0x99, 0x3e, 0x09, 0xa3, 0x3c, 0x3d,
  0x13, 0x78, 0x6b, 0xbf, 0x09, 0x38, 0xe6, 0x3e, 0xb3, 0xe4, 0x63, 0xbf,
  0x54, 0x18, 0x7b, 0x3f, 0xb2, 0xa5, 0xad, 0x3e, 0x35, 0x08, 0x26, 0x3e,
  0x5c, 0xa9, 0xd5, 0x3c, 0x75, 0xad, 0x12, 0x3f, 0x4c, 0xd9, 0x61, 0xbf,
  0x97, 0xbc, 0xf7, 0xbe, 0x39, 0x52, 0xa0, 0x3c, 0x52, 0xd1, 0x04, 0xbd,
  0xe3, 0xfb, 0xf3, 0x3e, 0xc9, 0x9e, 0x9d, 0x3d, 0x6d, 0x4c, 0x31, 0x3e,
  0xc1, 0x51, 0x95, 0xbe, 0x53, 0xfb, 0x0f, 0xbf, 0x4f, 0xcc, 0x28, 0xbe,
  0x39, 0x2f, 0x83, 0xbf, 0xf1, 0xa4, 0x90, 0xbe, 0xe7, 0x99, 0xd8, 0x3e,
  0xad, 0x0b, 0xa9, 0xbe, 0x02, 0x3b, 0xff, 0xbe, 0x64, 0xd8, 0x27, 0x3f,
  0x2f, 0x6e, 0xcd, 0x3e, 0xc9, 0xdd, 0xa5, 0xbe, 0xf6, 0x24, 0x03, 0x3f,
  0xe1, 0x3c, 0x50, 0x3e, 0xdf, 0x62, 0x66, 0x3e, 0x4a, 0x40, 0x8c, 0x3c,
  0x0e, 0x10, 0x65, 0xbe, 0xf6, 0xde, 0xb7, 0x3d, 0x95, 0x0f, 0x87, 0x3d,
  0x22, 0xfb, 0x93, 0x3d, 0x44, 0x39, 0xaa, 0xbe, 0x4a, 0xc4, 0x75, 0xbe,
  0xe4, 0x69, 0x7d, 0xbe, 0x0a, 0x60, 0xeb, 0x39, 0xc6, 0x2a, 0x10, 0xbf,
  0x11, 0x7b, 0x97, 0x3e, 0xa3, 0x72, 0xa5, 0xbd, 0x74, 0x31, 0x01, 0xbe,
  0x1a, 0xfe, 0x52, 0x3a, 0x64, 0xe9, 0x36, 0xbf, 0x0d, 0x44, 0x3f, 0x3f,
  0x6d, 0x99, 0xdb, 0xbe, 0xb9, 0x7e, 0xc4, 0x3d, 0xdf, 0xf2, 0x87, 0x3e,
  0x5a, 0xcb, 0x03, 0xbf, 0xe4, 0x23, 0x2b, 0x3e, 0x5f, 0x11, 0x8e, 0xbe,
  0xbd, 0x43, 0xfa, 0x3c, 0xf2, 0x1e, 0x3c, 0xbe, 0x88, 0xdb, 0xd5, 0xbe,
  0x8c, 0xff, 0x69, 0x3e, 0xc9, 0x4d, 0xdf, 0x3e, 0x4a, 0x92, 0xd1, 0xbe,
  0x91, 0xf1, 0x34, 0xbf, 0xcf, 0x7e, 0xc9, 0xbe, 0xb8, 0x79, 0x5a, 0xbe,
  0xfc, 0xfc, 0x18, 0xbf, 0x4a, 0xe5, 0x29, 0x3d, 0xe1, 0x64, 0xad, 0xbe,
  0x2d, 0x09, 0x8f, 0xbe, 0x33, 0x20, 0x7d, 0xbf, 0x28, 0x52, 0xec, 0xbe,
  0x0f, 0xaf, 0x6f, 0x3d, 0xeb, 0xba, 0x59, 0x3e, 0x79, 0xb9, 0x06, 0x3f,
  0x5b, 0xc3, 0x5c, 0xbf, 0x6a, 0xd2, 0xa2, 0xbd, 0xe0, 0x9b, 0x1c, 0xbf,
  0xa7, 0xca, 0x0b, 0x3e, 0xa2, 0xe2, 0x6d, 0x3e, 0xcc, 0xc3, 0x2e, 0x3f,
  0x7b, 0xba, 0x1e, 0x3f, 0xa3, 0xa7, 0xb0, 0x3e, 0xa9, 0x01, 0x86, 0x3e,
  0x3d, 0x2f, 0xca, 0x3f, 0x53, 0x5b, 0x50, 0xbf, 0x1a, 0xeb, 0x18, 0x3f,
  0x0d, 0xfe, 0x68, 0x3e, 0x52, 0x61, 0x6a, 0xbe, 0x2f, 0x5b, 0x9d, 0xbd,
  0x2a, 0xe5, 0xff, 0xff, 0x04, 0x00, 0x00, 0x00, 0x50, 0x00, 0x00, 0x00,
  0x00, 0x00, 0x00, 0x00, 0x00, 0x00, 0x00, 0x00, 0x00, 0x00, 0x00, 0x00,
  0x00, 0x00, 0x00, 0x00, 0x00, 0x00, 0x00, 0x00, 0x00, 0x00, 0x00, 0x00,
  0x00, 0x00, 0x00, 0x00, 0x00, 0x00, 0x00, 0x00, 0x00, 0x00, 0x00, 0x00,
  0x00, 0x00, 0x00, 0x00, 0x00, 0x00, 0x00, 0x00, 0x00, 0x00, 0x00, 0x00,
  0x00, 0x00, 0x00, 0x00, 0x00, 0x00, 0x00, 0x00, 0x00, 0x00, 0x00, 0x00,
  0x00, 0x00, 0x00, 0x00, 0x00, 0x00, 0x00, 0x00, 0x00, 0x00, 0x00, 0x00,
  0x00, 0x00, 0x00, 0x00, 0x00, 0x00, 0x00, 0x00, 0x86, 0xe5, 0xff, 0xff,
  0x04, 0x00, 0x00, 0x00, 0x10, 0x05, 0x00, 0x00, 0x39, 0x99, 0x1f, 0xbf,
  0x6d, 0xb6, 0x43, 0xbf, 0xae, 0x33, 0x44, 0x3f, 0x64, 0x6e, 0x68, 0x3e,
  0x9a, 0xa8, 0x47, 0x3f, 0x39, 0xa4, 0xff, 0xbd, 0x6e, 0x3f, 0xd7, 0x3e,
  0x2c, 0x4a, 0xc8, 0xbe, 0x49, 0x95, 0x86, 0x3e, 0x69, 0x2e, 0xa4, 0x3d,
  0xdd, 0x7a, 0xa1, 0x3e, 0x44, 0x1f, 0xf5, 0xbe, 0xd9, 0xf7, 0x82, 0x3e,
  0x86, 0x9f, 0x14, 0x3f, 0xd3, 0x00, 0x07, 0x3e, 0x26, 0xc9, 0x00, 0x3f,
  0x37, 0x3c, 0x48, 0xbe, 0x14, 0x39, 0x0e, 0x3f, 0xc9, 0x36, 0xca, 0xbe,
  0x3e, 0x20, 0x46, 0xbf, 0x18, 0x89, 0xca, 0xbd, 0xce, 0xe2, 0x13, 0x3e,
  0xa4, 0xb5, 0xa1, 0xbe, 0xcc, 0x21, 0x99, 0x3d, 0x26, 0xed, 0x3d, 0xbe,
  0x74, 0x73, 0xa6, 0xbe, 0x32, 0x78, 0x3f, 0xbd, 0x4d, 0xdc, 0x94, 0xbc,
  0x44, 0x84, 0x71, 0x3d, 0x9c, 0x54, 0xaf, 0xbe, 0xb7, 0xd9, 0xae, 0xbe,
  0xd8, 0x52, 0x4f, 0x3d, 0x8c, 0x1b, 0x59, 0xbd, 0xda, 0x6f, 0x64, 0xbe,
  0x7d, 0xd3, 0xcc, 0xbe, 0x48, 0x82, 0xab, 0xbd, 0xe0, 0x27, 0xbe, 0xbf,
  0x4e, 0x47, 0x61, 0xbf, 0x93, 0xda, 0x3b, 0xbf, 0x0c, 0x12, 0x78, 0xbf,
  0x6b, 0x12, 0x88, 0xbe, 0x21, 0x39, 0x46, 0x3f, 0x21, 0xdd, 0xe4, 0xbe,
  0xdc, 0x15, 0x7c, 0xbe, 0x5f, 0x9b, 0x1a, 0xbe, 0x91, 0x50, 0xc7, 0xbe,
  0xde, 0x6c, 0xa4, 0xbf, 0x46, 0x00, 0x16, 0xbf, 0xdb, 0xe5, 0x2b, 0xbf,
  0x06, 0x05, 0x0e, 0x3f, 0x52, 0x95, 0xda, 0xbd, 0x0b, 0x0c, 0x3c, 0xbf,
  0x2c, 0x9b, 0x43, 0xbf, 0xf0, 0x02, 0x3d, 0xbe, 0x0d, 0xa6, 0x7a, 0x3f,
  0xc2, 0x90, 0x69, 0xbf, 0x6b, 0x55, 0x74, 0x3f, 0x90, 0x49, 0x1a, 0x3f,
  0x64, 0x33, 0xc4, 0x3e, 0x6d, 0x8d, 0x8a, 0xbf, 0xc5, 0x19, 0x08, 0x3f,
  0x82, 0xd5, 0x4a, 0x3f, 0x73, 0x2e, 0x8f, 0x3b, 0x1a, 0x8b, 0x40, 0xbe,
  0x92, 0x49, 0xd1, 0x3e, 0x94, 0x8b, 0x2c, 0xbf, 0x7c, 0x4c, 0x1a, 0xbf,
  0x61, 0x53, 0x85, 0x3e, 0xc6, 0x05, 0x78, 0xbe, 0xa8, 0xd6, 0x21, 0x3f,
  0xae, 0x44, 0x82, 0x3e, 0x9c, 0xb7, 0x02, 0x3e, 0x8e, 0x70, 0xa4, 0x3e,
  0x38, 0xde, 0x97, 0xbf, 0xa0, 0x5b, 0x5a, 0x3e, 0xa3, 0xa0, 0x0c, 0x3e,
  0x36, 0xc3, 0x4d, 0xbe, 0x8d, 0xad, 0x6f, 0xbe, 0x91, 0x96, 0x08, 0x3f,
  0x58, 0x43, 0xd6, 0x3e, 0x64, 0xe4, 0x98, 0xbe, 0x51, 0xae, 0xf2, 0xbd,
  0xf9, 0x0f, 0x6d, 0xbe, 0x28, 0x84, 0xa0, 0x3d, 0x09, 0x41, 0x81, 0xbe,
  0x19, 0x95, 0xf0, 0x3e, 0xe8, 0xd9, 0xf4, 0xbe, 0x28, 0xa3, 0x29, 0x3e,
  0x42, 0xaa, 0x78, 0x3e, 0xa0, 0x76, 0xbf, 0xbe, 0xa0, 0x5c, 0x9d, 0xbf,
  0xb6, 0x53, 0xaf, 0xbf, 0x2b, 0x04, 0x4c, 0xbe, 0xff, 0x3c, 0xaf, 0xbf,
  0x7d, 0x83, 0x0d, 0x3f, 0xcd, 0x0e, 0x74, 0xbd, 0xda, 0xc4, 0xa8, 0xbd,
  0x19, 0x41, 0xdf, 0xbf, 0xd0, 0x73, 0x6c, 0xbe, 0x91, 0x00, 0x35, 0xbf,
  0xcf, 0x8c, 0x66, 0xbf, 0xdc, 0x47, 0x15, 0x3f, 0xfd, 0xd4, 0x2f, 0x3f,
  0x25, 0x4e, 0x6f, 0x3e, 0xe3, 0x6d, 0x09, 0x3f, 0x79, 0x89, 0x62, 0x3f,
  0x37, 0xf9, 0xc8, 0xbe, 0xff, 0xad, 0x1c, 0x3f, 0xb2, 0x11, 0xab, 0x3f,
  0xf1, 0x74, 0x5e, 0xbe, 0x1a, 0x88, 0x75, 0xbd, 0x30, 0x03, 0x50, 0x3e,
  0x18, 0x20, 0x84, 0xbf, 0x77, 0xf5, 0x5c, 0xbf, 0x96, 0x75, 0xf7, 0x3e,
  0x5f, 0x35, 0x3f, 0x3f, 0x4c, 0x59, 0x66, 0xbe, 0x91, 0x58, 0x97, 0x3c,
  0xbb, 0x2d, 0x2a, 0xbf, 0xe5, 0x59, 0x87, 0xbe, 0x7b, 0x76, 0xf7, 0xbd,
  0x9d, 0x51, 0x51, 0xbf, 0xba, 0xfc, 0x80, 0xbe, 0xf9, 0x2e, 0x0a, 0xbf,
  0x14, 0xb8, 0xcc, 0xbe, 0x87, 0xd7, 0x54, 0xbf, 0xc1, 0x7c, 0x5d, 0x3f,
  0x1e, 0xa1, 0xe3, 0xbf, 0x50, 0xe4, 0x6a, 0x3d, 0xab, 0x32, 0xb2, 0xbe,
  0xb8, 0xb1, 0x80, 0xbd, 0x95, 0xd6, 0x0a, 0xbb, 0x9b, 0x4c, 0xd6, 0xbe,
  0x5a, 0x72, 0x5b, 0xbd, 0x70, 0x30, 0x91, 0xbe, 0xed, 0xd9, 0xa5, 0xbc,
  0xb1, 0x69, 0x26, 0xbf, 0x76, 0xe5, 0xb1, 0xbd, 0x1b, 0x6d, 0x6e, 0xbd,
  0xa2, 0x76, 0x21, 0xbf, 0x2a, 0xf9, 0x87, 0x3e, 0x85, 0x08, 0x4d, 0x3e,
  0xa6, 0x17, 0x62, 0xbf, 0xdb, 0xde, 0x90, 0x3d, 0xfa, 0x37, 0x7d, 0x3e,
  0xad, 0xbe, 0xfe, 0xbf, 0xf0, 0xf7, 0x09, 0x3f, 0xa4, 0x5f, 0xc5, 0xbe,
  0x93, 0x89, 0x56, 0x3e, 0xb8, 0xca, 0x0d, 0xbf, 0x2e, 0x05, 0x1f, 0xbf,
  0x4d, 0x14, 0x90, 0xbd, 0x8e, 0x9e, 0xff, 0xbe, 0x69, 0x59, 0x0e, 0xbf,
  0x55, 0xcf, 0xab, 0xbc, 0xec, 0x22, 0x24, 0xbe, 0x96, 0xdf, 0xcc, 0x3e,
  0xcf, 0x82, 0xb7, 0xbe, 0x0c, 0x66, 0x09, 0x3f, 0xe6, 0x62, 0x45, 0x3f,
  0x47, 0x95, 0x87, 0xbf, 0x57, 0x59, 0x81, 0x3e, 0xf0, 0x84, 0xb9, 0x3e,
  0xd8, 0x27, 0x5e, 0x3d, 0x6c, 0xc6, 0x45, 0xbe, 0xec, 0x05, 0x9f, 0xbe,
  0xa3, 0x54, 0xa1, 0xbe, 0x4f, 0x61, 0x99, 0xbc, 0xc5, 0x6b, 0xca, 0xbd,
  0xea, 0xaf, 0x9b, 0x3e, 0x22, 0xb6, 0x8f, 0x3e, 0x69, 0x80, 0xe4, 0xbd,
  0x8b, 0xea, 0x65, 0xbf, 0xe3, 0xa0, 0x8a, 0x3e, 0xf7, 0xa2, 0x8b, 0x3e,
  0x09, 0x4f, 0x86, 0xbe, 0xc9, 0x13, 0x84, 0xbe, 0xfd, 0x56, 0x45, 0xbe,
  0xff, 0xe2, 0x93, 0xbe, 0xd7, 0xdd, 0x8f, 0xbe, 0x35, 0x9e, 0x15, 0xbe,
  0xbf, 0xce, 0x36, 0x3e, 0xea, 0x36, 0xf7, 0xbd, 0x2c, 0x31, 0xa1, 0xbd,
  0xaa, 0x09, 0x83, 0x3d, 0x6a, 0x80, 0x79, 0x3c, 0xdb, 0x8a, 0x17, 0x3e,
  0x22, 0x77, 0x1b, 0xbe, 0x95, 0xe0, 0x57, 0x3e, 0xd6, 0x48, 0xa9, 0xbd,
  0x04, 0x05, 0x45, 0xbe, 0xbd, 0x05, 0xd5, 0x3d, 0x0a, 0x77, 0x8b, 0x3e,
  0xc7, 0xca, 0x09, 0x3f, 0x33, 0x5e, 0x7a, 0x3d, 0x38, 0x43, 0x7f, 0xbc,
  0x34, 0xc6, 0xb9, 0x3e, 0x6d, 0xf1, 0x73, 0x3d, 0x5c, 0xc0, 0x36, 0xbc,
  0x41, 0x32, 0x3c, 0x3e, 0x19, 0x29, 0x40, 0x3e, 0x65, 0xb8, 0x9a, 0xbe,
  0xf3, 0xde, 0xe2, 0x3d, 0xb9, 0x07, 0xae, 0xbe, 0x64, 0x23, 0x73, 0x3d,
  0x2c, 0x68, 0xcf, 0xbe, 0x8f, 0xe1, 0xd3, 0xbd, 0x03, 0xa7, 0xb3, 0xbb,
  0x8d, 0x41, 0x1d, 0xbc, 0x12, 0xbc, 0x64, 0xbe, 0x64, 0xe2, 0x23, 0x3c,
  0xb4, 0xef, 0x15, 0x3f, 0x1f, 0x45, 0x89, 0xbd, 0x30, 0x3a, 0xdd, 0x3d,
  0xcf, 0xb3, 0x85, 0x3e, 0xff, 0x58, 0xaf, 0x3d, 0x60, 0xff, 0x87, 0xbf,
  0x75, 0x7f, 0xab, 0x3e, 0x21, 0x52, 0x11, 0xbe, 0xa5, 0x38, 0xf5, 0xbd,
  0xd5, 0x93, 0xa2, 0x3e, 0x65, 0x1e, 0xa8, 0xbe, 0x78, 0x29, 0x68, 0xbd,
  0xbf, 0xe6, 0x57, 0xbf, 0x37, 0xc1, 0x9a, 0xbc, 0xe6, 0xd5, 0x8a, 0xbd,
  0xdf, 0x3c, 0xa8, 0x3b, 0xa5, 0x6f, 0x84, 0x3f, 0x29, 0x85, 0x27, 0x3f,
  0x88, 0xa5, 0xa9, 0x3e, 0xe8, 0x2a, 0xfa, 0x3e, 0x54, 0xbb, 0x37, 0x3d,
  0x45, 0x59, 0x80, 0x3e, 0xbf, 0xc9, 0xaf, 0xbc, 0xf8, 0xc3, 0x04, 0xbe,
  0x2b, 0xc4, 0x69, 0x3e, 0xe6, 0x23, 0x4e, 0x3f, 0x68, 0x0e, 0x90, 0xbd,
  0x6c, 0x26, 0x17, 0x3f, 0x5b, 0x0e, 0x84, 0xbf, 0xa0, 0xe2, 0xb2, 0x3d,
  0x53, 0x24, 0xa6, 0xbe, 0x62, 0xed, 0xf9, 0x3d, 0x86, 0xd0, 0x83, 0xbd,
  0x73, 0xbd, 0x24, 0x3f, 0x1d, 0x33, 0xce, 0x3d, 0x0a, 0x78, 0xbe, 0x3d,
  0xa2, 0x33, 0xcc, 0x3e, 0x59, 0xed, 0xdc, 0x3d, 0x7e, 0xad, 0x1d, 0x3e,
  0x3c, 0x99, 0xbc, 0x3e, 0xab, 0x90, 0x0a, 0x3d, 0xc9, 0x65, 0xf7, 0x3e,
  0x4c, 0x84, 0x9d, 0x3e, 0x13, 0xb8, 0x96, 0x3e, 0x3e, 0xd4, 0x3e, 0xbe,
  0x93, 0xaf, 0xea, 0xbd, 0x7c, 0x7e, 0x83, 0xbe, 0x04, 0xd8, 0xc3, 0xbd,
  0xba, 0x08, 0xa8, 0x3d, 0xbd, 0x05, 0xef, 0xbb, 0xf1, 0x79, 0x2c, 0xbe,
  0x1a, 0xeb, 0x37, 0x3f, 0x15, 0xc1, 0x32, 0xbf, 0xa0, 0x2e, 0xe7, 0xbe,
  0x0e, 0xfb, 0xaa, 0x3e, 0xf6, 0x26, 0xfa, 0xbd, 0x98, 0xf2, 0x1e, 0xbe,
  0x50, 0x19, 0x81, 0xbb, 0xf3, 0xaa, 0x9d, 0xbc, 0x38, 0x87, 0x1d, 0xbc,
  0x3c, 0x9d, 0x71, 0xbe, 0x4c, 0xf0, 0xed, 0x3d, 0x60, 0xf0, 0x77, 0xbd,
  0x89, 0x91, 0x70, 0xbd, 0x49, 0xbc, 0x63, 0xbe, 0xb4, 0x84, 0x00, 0xbf,
  0x0c, 0x0d, 0x8c, 0x3d, 0x56, 0x08, 0x95, 0xbe, 0xb5, 0xd5, 0x3e, 0x3d,
  0x3e, 0x21, 0xee, 0x3e, 0x77, 0xcb, 0x80, 0xbc, 0x9b, 0x56, 0x88, 0x3d,
  0x02, 0x14, 0xa4, 0x3d, 0xaf, 0xa0, 0x12, 0x3e, 0xd0, 0xda, 0x13, 0xbe,
  0xa8, 0x68, 0x4a, 0x3e, 0xc3, 0xab, 0xd0, 0x3b, 0xb4, 0xc8, 0x3b, 0x3e,
  0xad, 0xf6, 0xa6, 0xbe, 0x54, 0xf9, 0xea, 0x3d, 0x9b, 0x8d, 0x78, 0xbe,
  0xd1, 0x55, 0x59, 0xbd, 0xbc, 0x39, 0x69, 0x3b, 0x1c, 0x93, 0x3d, 0xbe,
  0x77, 0xc7, 0xf6, 0x3d, 0x6b, 0xcc, 0xb0, 0xbd, 0x87, 0x12, 0x5f, 0xbe,
  0x72, 0x17, 0x89, 0x3e, 0x19, 0x36, 0x61, 0xbe, 0x4c, 0xc7, 0x06, 0xbf,
  0xbd, 0x33, 0xd3, 0x3e, 0x32, 0x27, 0x09, 0xbe, 0x0c, 0xb3, 0x17, 0xbd,
  0xf6, 0xf0, 0x6e, 0x3e, 0xf6, 0x86, 0x1c, 0xbe, 0xc9, 0x2d, 0xe0, 0x3e,
  0x59, 0xa5, 0x68, 0xbf, 0x4f, 0x95, 0x12, 0xbf, 0x2a, 0xbc, 0x69, 0xbe,
  0xb6, 0x8c, 0x5a, 0xbf, 0x00, 0x03, 0xd0, 0x3e, 0x85, 0x40, 0x5c, 0xbf,
  0x9c, 0xb1, 0x0d, 0x3f, 0xa2, 0xcd, 0x29, 0xbd, 0x3d, 0x76, 0x84, 0xbe,
  0x87, 0xf7, 0x74, 0xbd, 0x68, 0xe7, 0x58, 0xbf, 0xb9, 0xc9, 0x95, 0xbf,
  0x42, 0x23, 0x9f, 0x3e, 0x40, 0x62, 0x7e, 0xbf, 0x26, 0x08, 0x3e, 0xbf,
  0x80, 0xbb, 0xb8, 0x3e, 0xad, 0x82, 0x56, 0xbf, 0xa2, 0xea, 0xff, 0xff,
  0x04, 0x00, 0x00, 0x00, 0x10, 0x05, 0x00, 0x00, 0x8f, 0x85, 0x58, 0x3e,
  0x6b, 0x64, 0x8b, 0xbf, 0xca, 0xdd, 0x9b, 0xbe, 0xa8, 0x06, 0xb7, 0xbe,
  0x17, 0x40, 0xaf, 0x3d, 0x09, 0x1a, 0x91, 0x3e, 0x8f, 0x15, 0xae, 0x3e,
  0xa6, 0x04, 0x40, 0xbe, 0xc7, 0x7f, 0xe9, 0x3e, 0xc4, 0xa6, 0xc6, 0x3c,
  0x71, 0x63, 0x04, 0x3e, 0x98, 0xb4, 0xc2, 0xbc, 0xca, 0xbf, 0x96, 0xbe,
  0xed, 0xdf, 0x02, 0xbd, 0x5e, 0x4a, 0x39, 0xbf, 0x4e, 0x24, 0x8f, 0x3e,
  0xae, 0x1f, 0xcf, 0x3e, 0xd5, 0x03, 0x92, 0xbf, 0x11, 0x2b, 0xae, 0x3e,
  0x77, 0x1e, 0x69, 0x3f, 0xe2, 0xfe, 0x9f, 0x3e, 0xa4, 0x21, 0x6f, 0xbe,
  0x9b, 0xe2, 0x39, 0x3c, 0xe9, 0xa7, 0x0f, 0x3f, 0x1f, 0x15, 0xaf, 0xbc,
  0x14, 0x68, 0x66, 0xbf, 0xc7, 0xb0, 0x09, 0x3f, 0x76, 0xd2, 0xc3, 0x3e,
  0x19, 0x18, 0x95, 0xbe, 0x30, 0xc1, 0xb5, 0x3d, 0x69, 0x96, 0x55, 0x3f,
  0x05, 0xd0, 0x1c, 0xbf, 0x95, 0x66, 0x80, 0x3f, 0xa1, 0x70, 0xee, 0x3e,
  0xbc, 0x80, 0x10, 0x3f, 0x1a, 0xd4, 0x99, 0x3e, 0xb4, 0x26, 0xf6, 0x3d,
  0x10, 0x60, 0xdf, 0xbe, 0xa6, 0x5e, 0x83, 0x3d, 0x2e, 0x08, 0x19, 0xbe,
  0x0b, 0x19, 0xb1, 0x3e, 0xfc, 0x3d, 0x23, 0x3f, 0x77, 0x62, 0xa1, 0x3c,
  0x8a, 0x84, 0x91, 0xbe, 0x74, 0x04, 0x85, 0xbc, 0xdd, 0x8c, 0x16, 0xbe,
  0x49, 0x20, 0x69, 0xbe, 0x52, 0x19, 0xb3, 0xbe, 0x36, 0x00, 0xa9, 0xbe,
  0x18, 0xe9, 0xf7, 0x3e, 0x48, 0xb7, 0x66, 0x3c, 0xfd, 0x2e, 0xa7, 0x3e,
  0x1f, 0x14, 0x96, 0x3f, 0x33, 0x7b, 0x6c, 0x3e, 0x57, 0xe8, 0x52, 0x3f,
  0x3c, 0xfe, 0x69, 0xbe, 0x92, 0x3e, 0x1c, 0x3f, 0x36, 0xf9, 0x14, 0xbe,
  0x17, 0x99, 0xe2, 0xbd, 0x78, 0x8b, 0x03, 0x3f, 0x9d, 0xe1, 0xd6, 0x3e,
  0x2a, 0xd0, 0x33, 0x3f, 0xfc, 0x72, 0xa1, 0xbd, 0xdc, 0x58, 0xeb, 0xbe,
  0xb9, 0x04, 0xb4, 0x3e, 0xb4, 0x22, 0xa9, 0xbe, 0xfa, 0x50, 0x15, 0xbd,
  0x27, 0x07, 0x15, 0xba, 0xb3, 0x02, 0xeb, 0x3d, 0x18, 0x44, 0x9a, 0xbe,
  0xdf, 0x46, 0x13, 0xbf, 0x0e, 0x40, 0xa1, 0xbf, 0x27, 0xbb, 0x1f, 0xbf,
  0x9f, 0xbd, 0x98, 0xbe, 0xbc, 0xe1, 0x3e, 0x3e, 0x4e, 0x4a, 0x7f, 0x3e,
  0x0b, 0x38, 0xd3, 0xbd, 0x66, 0x8f, 0x28, 0x3e, 0xab, 0x4e, 0x33, 0xbe,
  0x1e, 0xec, 0x8b, 0xbe, 0xcb, 0xb4, 0xae, 0xbc, 0xb1, 0x37, 0xf3, 0xbd,
  0x9b, 0x62, 0x7d, 0x3e, 0xc4, 0xee, 0x8d, 0x3e, 0x8a, 0x6a, 0x59, 0xbf,
  0x64, 0xf1, 0xa0, 0xbd, 0x0d, 0x05, 0xe2, 0x3d, 0x34, 0xde, 0xa8, 0x3e,
  0x4d, 0xd7, 0x88, 0x3f, 0xb2, 0xb9, 0x80, 0x3f, 0x4f, 0xbd, 0x01, 0xbe,
  0x70, 0x41, 0x98, 0x3e, 0x86, 0x85, 0x1f, 0xbf, 0x85, 0x2d, 0x14, 0xbe,
  0x28, 0xe2, 0xa3, 0xbe, 0x96, 0x10, 0x2c, 0xbf, 0x97, 0x8e, 0x5d, 0x3c,
  0x54, 0x49, 0x80, 0x3d, 0x94, 0x1d, 0xec, 0x3e, 0xd0, 0x99, 0x81, 0xbe,
  0x39, 0x93, 0x0c, 0x3f, 0xb7, 0x74, 0x26, 0xbe, 0x56, 0x7a, 0xc3, 0xbe,
  0x4d, 0x38, 0xc8, 0xbe, 0xfb, 0x04, 0x43, 0xbe, 0xe5, 0x7e, 0x67, 0xbd,
  0xfb, 0x11, 0x7d, 0xbf, 0xb4, 0xe5, 0x24, 0xbe, 0xe8, 0x0a, 0x78, 0xbe,
  0xb2, 0x17, 0x21, 0x3f, 0x3a, 0x1e, 0x2d, 0x3f, 0xdf, 0x78, 0x08, 0x3f,
  0xb1, 0xb4, 0x1f, 0x3f, 0x70, 0xca, 0x0d, 0xbe, 0x9d, 0xa9, 0xb3, 0xbd,
  0x3e, 0xc0, 0x46, 0x3e, 0x12, 0x21, 0x2e, 0x3e, 0x5a, 0x25, 0x13, 0x3e,
  0x77, 0xde, 0x93, 0x3e, 0x87, 0x29, 0x81, 0x3f, 0x48, 0x44, 0x8e, 0x3e,
  0x5f, 0x74, 0x89, 0x3e, 0x25, 0xed, 0x2d, 0x3f, 0x44, 0xbd, 0x69, 0x3e,
  0x72, 0xfa, 0x27, 0x3f, 0xd2, 0x71, 0x56, 0x3f, 0xdf, 0xd3, 0x5b, 0xbe,
  0x01, 0x71, 0x96, 0x3e, 0x4f, 0x24, 0x4a, 0xbe, 0xce, 0xc9, 0x9e, 0xbe,
  0xd4, 0xa2, 0xed, 0xbd, 0x71, 0x03, 0x84, 0xbe, 0x75, 0x58, 0x91, 0x3e,
  0x76, 0xba, 0x6d, 0x3b, 0x21, 0x4f, 0xb3, 0x3e, 0x4b, 0x38, 0x5b, 0xbe,
  0xd7, 0xb1, 0xa3, 0x3e, 0xc2, 0x83, 0xfa, 0xbd, 0x51, 0xee, 0x5a, 0xbd,
  0x8c, 0xd2, 0xe2, 0x3e, 0xbf, 0x3f, 0xba, 0xbe, 0x6f, 0xde, 0xfc, 0x3e,
  0xf5, 0x32, 0xcb, 0xbe, 0x05, 0x66, 0xbb, 0xbf, 0xbe, 0x06, 0x1a, 0xbf,
  0xab, 0x43, 0x28, 0xbd, 0x83, 0x1d, 0x01, 0x3f, 0x17, 0x34, 0x27, 0xbe,
  0x01, 0x4a, 0x20, 0x3f, 0xec, 0xac, 0x9b, 0x3f, 0x77, 0x1a, 0x76, 0x3f,
  0xed, 0x31, 0x93, 0x3e, 0x87, 0x34, 0xba, 0xbd, 0x8f, 0xf3, 0x00, 0xbf,
  0xf0, 0x32, 0x1f, 0xbf, 0xd2, 0xe9, 0xcc, 0xbe, 0x50, 0x29, 0x9c, 0x3e,
  0xf2, 0xf5, 0x47, 0x3f, 0xd0, 0x50, 0x61, 0xbd, 0x1a, 0x87, 0x5e, 0x3f,
  0xb9, 0x73, 0xef, 0x3e, 0x22, 0x87, 0xd4, 0x3e, 0x58, 0x0e, 0x2e, 0x3e,
  0x44, 0xf2, 0x02, 0x3e, 0xe4, 0xad, 0xb1, 0x3e, 0xa1, 0x2d, 0x1f, 0xbf,
  0xe6, 0x2c, 0xa8, 0xbe, 0x82, 0x94, 0x00, 0xbd, 0x55, 0x75, 0x8f, 0x3e,
  0x26, 0x1f, 0x14, 0x3d, 0xb1, 0xa4, 0x9f, 0xbe, 0x19, 0x4e, 0xae, 0xbd,
  0x3e, 0x95, 0xc4, 0x3e, 0xdf, 0xac, 0xf8, 0x3d, 0xca, 0x72, 0x9b, 0x3e,
  0x1c, 0x9b, 0xda, 0xbc, 0x07, 0x2f, 0xb7, 0xbe, 0xa2, 0x6d, 0x5a, 0xbe,
  0xf4, 0x46, 0x94, 0xbf, 0xf9, 0x4f, 0x48, 0xbf, 0x8d, 0x7f, 0x67, 0x3b,
  0x08, 0x0c, 0x6a, 0xbf, 0xea, 0x80, 0x9b, 0x3d, 0x18, 0x91, 0xa0, 0x3e,
  0x03, 0xcc, 0x4e, 0xbf, 0xc7, 0xaa, 0xa5, 0x3d, 0xde, 0x72, 0x2d, 0x3e,
  0x00, 0x8e, 0x26, 0x3f, 0xe2, 0xcd, 0x58, 0xbf, 0x88, 0xdd, 0xcb, 0xbe,
  0x5e, 0x8b, 0x5d, 0x3d, 0x96, 0x69, 0xcc, 0x3e, 0xd3, 0x97, 0x8d, 0xbe,
  0x63, 0x06, 0x0a, 0x3f, 0x23, 0xa3, 0x38, 0x3f, 0x6b, 0x7a, 0x15, 0x3f,
  0xc8, 0x18, 0x73, 0xbd, 0xda, 0xeb, 0x76, 0xbe, 0x2a, 0x9e, 0x38, 0xbd,
  0x46, 0x1e, 0x84, 0xbd, 0x9c, 0x41, 0x13, 0xbe, 0x05, 0xef, 0x90, 0x3e,
  0x29, 0xe7, 0xeb, 0x3a, 0xe5, 0x93, 0x38, 0x3f, 0xe3, 0x4b, 0x2f, 0xbf,
  0x7f, 0x94, 0x13, 0x3e, 0x2f, 0x39, 0xad, 0x3e, 0xb4, 0x66, 0x14, 0xbe,
  0x0a, 0xa4, 0x1c, 0xbf, 0xb2, 0x40, 0xb1, 0x3d, 0x19, 0xd8, 0xfd, 0xbe,
  0x88, 0x2d, 0x9e, 0xbf, 0xc6, 0x10, 0x42, 0x3f, 0xab, 0x55, 0x75, 0x3e,
  0xbb, 0xf9, 0x3f, 0xbf, 0x0d, 0x66, 0x49, 0xbd, 0x2b, 0xd1, 0x6e, 0x3e,
  0x50, 0x1a, 0x07, 0xbe, 0xa5, 0x71, 0x4c, 0x3e, 0x8e, 0x55, 0x2a, 0x3f,
  0xb5, 0x24, 0x5b, 0xbf, 0xfd, 0x6e, 0x40, 0x3f, 0xd7, 0xde, 0xa2, 0xbe,
  0x11, 0xf8, 0x1e, 0xbf, 0x51, 0xd2, 0x26, 0x3f, 0x8b, 0x8a, 0xc5, 0x3c,
  0xf6, 0x43, 0x86, 0xbe, 0xc2, 0x4e, 0x58, 0xbd, 0x31, 0xcc, 0x24, 0x3e,
  0xa8, 0x3a, 0x07, 0xbf, 0x2e, 0xab, 0x0c, 0x3f, 0x64, 0xbe, 0x13, 0xbd,
  0xe4, 0x9f, 0x12, 0xbe, 0x7d, 0x43, 0xbe, 0x3d, 0x7b, 0x75, 0x44, 0x3f,
  0x99, 0x88, 0xa0, 0x3d, 0xc7, 0x23, 0x6e, 0x3d, 0x73, 0x3c, 0x69, 0x3c,
  0xb4, 0x88, 0xa8, 0xbe, 0x21, 0x39, 0x90, 0xbf, 0x0c, 0x76, 0xd4, 0xbd,
  0x7d, 0x2f, 0xb8, 0x3f, 0x77, 0x79, 0x18, 0xbf, 0x9c, 0x40, 0x46, 0xbd,
  0x62, 0x2b, 0x37, 0x3f, 0x6c, 0x51, 0x02, 0xbe, 0x80, 0x39, 0x29, 0xbf,
  0x01, 0xe8, 0x9b, 0xbe, 0xf4, 0x5a, 0xc3, 0xbe, 0xc9, 0xa8, 0xee, 0xbe,
  0xb5, 0x74, 0x94, 0x3e, 0x04, 0xd6, 0x1e, 0x3f, 0x9b, 0xcf, 0xb9, 0x3e,
  0xb1, 0x0f, 0xf0, 0xbe, 0xd5, 0x4e, 0x3a, 0xbf, 0x6a, 0x6c, 0x8e, 0x3f,
  0xec, 0x32, 0x9f, 0xbe, 0xcb, 0x91, 0x38, 0x3e, 0x77, 0xa0, 0x88, 0xbd,
  0x2b, 0xb0, 0x6e, 0x3e, 0x68, 0xab, 0xce, 0x3e, 0x51, 0x95, 0x63, 0x3d,
  0xfa, 0x37, 0xc5, 0x3e, 0x9b, 0xb7, 0x33, 0xbe, 0x57, 0xa5, 0xb8, 0xbe,
  0x46, 0x35, 0x90, 0xbe, 0x5f, 0x77, 0x2b, 0xbb, 0x99, 0x8b, 0x36, 0x3e,
  0xa5, 0x35, 0xff, 0x3e, 0xd5, 0x59, 0xa2, 0x3e, 0x9c, 0x4f, 0xdb, 0xbe,
  0x06, 0xa0, 0x26, 0x3d, 0x26, 0x55, 0xec, 0xbe, 0xbc, 0x4c, 0xbf, 0xbd,
  0x25, 0x1a, 0xc2, 0xbe, 0xf8, 0xf9, 0x8d, 0x3e, 0x3c, 0x68, 0x80, 0xbd,
  0x56, 0x77, 0x90, 0xbe, 0x9e, 0x56, 0xd2, 0x3c, 0x01, 0xbc, 0xe6, 0xbd,
  0x57, 0xcd, 0x2f, 0x3e, 0x81, 0x29, 0xc9, 0xbe, 0x1d, 0x6c, 0x6b, 0xbe,
  0x76, 0x3e, 0x86, 0xbe, 0x50, 0xf8, 0x51, 0xbe, 0x03, 0x63, 0xbd, 0x3d,
  0x58, 0xca, 0xa4, 0x3f, 0x60, 0x66, 0xa1, 0x3e, 0x42, 0xe0, 0x8b, 0x3e,
  0xb1, 0x3d, 0x90, 0xbe, 0xd9, 0x0f, 0x5d, 0x3e, 0x68, 0x95, 0x11, 0xbe,
  0xc0, 0xe7, 0xcc, 0xbe, 0xb8, 0x13, 0x1a, 0x3f, 0x3c, 0x5f, 0x05, 0x3f,
  0x74, 0x56, 0x14, 0x3f, 0x42, 0xfd, 0x86, 0xbf, 0xa8, 0x22, 0xe8, 0xbe,
  0x73, 0x28, 0x07, 0xbd, 0x27, 0x11, 0x31, 0x3e, 0x25, 0xfd, 0x50, 0x3e,
  0x81, 0x26, 0xd3, 0x3e, 0xd0, 0x4b, 0x28, 0x3f, 0xcb, 0x87, 0x78, 0x3f,
  0x1b, 0x0b, 0x22, 0xbe, 0xd6, 0x9d, 0xde, 0x3e, 0x61, 0x9a, 0x18, 0x3f,
  0x26, 0x04, 0x68, 0xbf, 0x19, 0x22, 0x11, 0xbf, 0xea, 0xe2, 0xaa, 0x3e,
  0xd8, 0xec, 0x29, 0xbe, 0x36, 0x62, 0x18, 0xbf, 0xaa, 0x63, 0xc0, 0xbe,
  0x52, 0x21, 0xc9, 0xbe, 0x29, 0x7f, 0x4d, 0xbe, 0x7a, 0xea, 0xd3, 0xbe,
  0x2e, 0xa8, 0x81, 0xbc, 0x11, 0x3b, 0xd3, 0xbe, 0x4e, 0x69, 0x61, 0xbe,
  0x01, 0xd2, 0xdd, 0x3e, 0x18, 0xc1, 0x08, 0xbf, 0x01, 0x02, 0xe5, 0xbe,
  0x56, 0xe0, 0x84, 0x3f, 0x4e, 0xe7, 0x8e, 0x3e, 0xbe, 0xef, 0xff, 0xff,
  0x04, 0x00, 0x00, 0x00, 0x48, 0x00, 0x00, 0x00, 0x00, 0x00, 0x00, 0x00,
  0x00, 0x00, 0x00, 0x00, 0x00, 0x00, 0x00, 0x00, 0x00, 0x00, 0x00, 0x00,
  0x00, 0x00, 0x00, 0x00, 0x00, 0x00, 0x00, 0x00, 0x00, 0x00, 0x00, 0x00,
  0x00, 0x00, 0x00, 0x00, 0x00, 0x00, 0x00, 0x00, 0x00, 0x00, 0x00, 0x00,
  0x00, 0x00, 0x00, 0x00, 0x00, 0x00, 0x00, 0x00, 0x00, 0x00, 0x00, 0x00,
  0x00, 0x00, 0x00, 0x00, 0x00, 0x00, 0x00, 0x00, 0x00, 0x00, 0x00, 0x00,
  0x00, 0x00, 0x00, 0x00, 0x00, 0x00, 0x00, 0x00, 0x12, 0xf0, 0xff, 0xff,
  0x04, 0x00, 0x00, 0x00, 0x80, 0x04, 0x00, 0x00, 0xf1, 0x96, 0x0b, 0x3f,
  0xde, 0xe4, 0xeb, 0xbe, 0xdc, 0x0b, 0x21, 0x3d, 0x87, 0x23, 0x28, 0x3f,
  0x0c, 0x86, 0xf9, 0x3e, 0x91, 0xfd, 0x40, 0x3e, 0x84, 0xfc, 0x8e, 0xbd,
  0x8c, 0x03, 0x47, 0x3f, 0x91, 0x9d, 0x32, 0xbf, 0xc6, 0x43, 0xce, 0x3d,
  0xa5, 0x3b, 0x44, 0xbf, 0x94, 0x58, 0x5f, 0xbc, 0xbd, 0x80, 0x8a, 0x3c,
  0xc7, 0x02, 0xeb, 0x3e, 0x29, 0x9f, 0x0f, 0xbf, 0xb5, 0xf7, 0xe9, 0x3d,
  0x05, 0xd7, 0x78, 0x3e, 0xc6, 0xba, 0xef, 0xbc, 0x72, 0xc4, 0x56, 0x3e,
  0x82, 0x94, 0x89, 0x3e, 0xca, 0x80, 0x3d, 0x3d, 0x61, 0x68, 0xc0, 0xbd,
  0xa0, 0x16, 0xda, 0xbe, 0x01, 0xd7, 0x53, 0x3e, 0x32, 0x1b, 0x4e, 0x3c,
  0xa8, 0x08, 0x40, 0xbe, 0x86, 0x64, 0x74, 0xbe, 0x10, 0x70, 0x0f, 0x3e,
  0x99, 0xa2, 0xfb, 0xbc, 0x3d, 0x80, 0xb9, 0xbe, 0x3e, 0x52, 0xb3, 0xbe,
  0xce, 0xc1, 0x4f, 0xbe, 0xd2, 0x03, 0xf4, 0x3d, 0xcd, 0x81, 0xaf, 0x3e,
  0xe7, 0x84, 0x46, 0x3d, 0x3c, 0xfe, 0xef, 0xbd, 0xac, 0xe4, 0x97, 0x3e,
  0x5b, 0xaf, 0x2a, 0xbf, 0xd5, 0x47, 0xa3, 0xbe, 0xd7, 0xa2, 0x07, 0x3f,
  0x56, 0x09, 0x92, 0x3a, 0xfe, 0x8e, 0x08, 0xbf, 0xbf, 0xe5, 0x7d, 0x3e,
  0xfc, 0x78, 0x02, 0xbd, 0xa5, 0x72, 0x1b, 0xbb, 0xbd, 0x4a, 0x48, 0xbf,
  0xc0, 0xc5, 0xbf, 0xbe, 0x7e, 0x8d, 0x21, 0xbf, 0xa9, 0x42, 0x0d, 0xbd,
  0x22, 0x75, 0x4b, 0xbf, 0x14, 0xb3, 0xd2, 0xbd, 0x51, 0xe2, 0x74, 0xbe,
  0xef, 0x8b, 0x20, 0x3e, 0x98, 0x4e, 0x84, 0x3e, 0xb4, 0xdc, 0xa7, 0xbe,
  0x96, 0x0b, 0xf0, 0xbd, 0x57, 0x7a, 0x8f, 0xbd, 0xee, 0x4e, 0x8e, 0x3e,
  0x33, 0x1f, 0x93, 0xbe, 0x39, 0x66, 0x9b, 0xbe, 0x67, 0x4a, 0xf1, 0x3d,
  0x2d, 0x07, 0x37, 0xbe, 0x82, 0x99, 0xce, 0xbd, 0xc7, 0xbf, 0x05, 0x3f,
  0x0c, 0x3f, 0xfb, 0x3e, 0x5f, 0xdf, 0x9e, 0xbe, 0x71, 0xf2, 0xe5, 0x3d,
  0x42, 0x89, 0x1c, 0xbe, 0x3d, 0x0a, 0xff, 0xbd, 0xe2, 0xc7, 0x40, 0x3e,
  0x35, 0xc1, 0xaf, 0xbe, 0xc5, 0x95, 0x82, 0xbe, 0xb6, 0xe5, 0xac, 0xbc,
  0x5f, 0xab, 0xe6, 0x3d, 0x71, 0x4f, 0x2e, 0x3f, 0x91, 0x41, 0x83, 0xbe,
  0x0e, 0xe0, 0x1f, 0x3e, 0xb9, 0xa7, 0x20, 0x3e, 0xc3, 0x81, 0xa9, 0x3e,
  0x7d, 0xf1, 0xac, 0x3e, 0x42, 0x51, 0x38, 0x3e, 0xc2, 0xac, 0xb2, 0x3d,
  0x91, 0x40, 0xf2, 0xbd, 0x9d, 0xe6, 0xf3, 0x3e, 0xd8, 0x79, 0x2a, 0xbe,
  0x87, 0x06, 0x65, 0x3d, 0xc3, 0xbf, 0x21, 0xbf, 0xca, 0x56, 0x80, 0x3e,
  0x3a, 0xde, 0x1e, 0x3f, 0x3d, 0xc1, 0xa0, 0x3d, 0x19, 0x2b, 0xbe, 0x3e,
  0x95, 0xbc, 0xa9, 0xbe, 0x27, 0x31, 0xae, 0x3e, 0xe7, 0x38, 0x61, 0xbf,
  0x15, 0xb5, 0x42, 0x3f, 0x81, 0xd1, 0x2c, 0xbf, 0x6d, 0xaf, 0x2a, 0xbf,
  0xd5, 0xe0, 0x76, 0xbf, 0xa6, 0xf7, 0xfc, 0xbd, 0xe8, 0x85, 0x8a, 0xbe,
  0xf1, 0xd2, 0x1e, 0x3e, 0xc1, 0x5e, 0x28, 0xbd, 0x64, 0x56, 0x84, 0xbe,
  0x34, 0x64, 0x97, 0xbf, 0x38, 0xf2, 0x91, 0xbe, 0x4c, 0xd8, 0x29, 0x3e,
  0xde, 0x29, 0x43, 0xbe, 0xf5, 0xeb, 0x2a, 0xbe, 0x05, 0xba, 0xed, 0xbd,
  0xe2, 0x70, 0x57, 0xbe, 0x3a, 0x15, 0x9f, 0x3e, 0xdd, 0xd5, 0xcd, 0xbb,
  0x28, 0x78, 0xa8, 0xbe, 0x5f, 0xc4, 0xa0, 0xbe, 0x16, 0xf1, 0xe2, 0x3d,
  0x45, 0xcc, 0x90, 0xbd, 0x65, 0xb1, 0x09, 0x3e, 0x2f, 0xed, 0x73, 0xbe,
  0x7d, 0x29, 0x9e, 0xbe, 0xf3, 0x72, 0x0c, 0xbf, 0x6d, 0xbd, 0x34, 0xbf,
  0x80, 0x82, 0x5a, 0x3d, 0x57, 0x1c, 0xb3, 0x3d, 0x63, 0x51, 0x67, 0xbf,
  0x9c, 0x56, 0x82, 0x3e, 0x80, 0x0c, 0xf8, 0x3e, 0x09, 0x30, 0x8a, 0xbd,
  0xbd, 0x15, 0x49, 0x3e, 0x3a, 0xcb, 0x5e, 0x3e, 0x8f, 0x4b, 0xc8, 0xbe,
  0x13, 0x5b, 0x23, 0xbe, 0x40, 0x52, 0xa9, 0x3e, 0x10, 0xaf, 0xb9, 0x3d,
  0xf6, 0x06, 0x61, 0x3f, 0x56, 0xba, 0x40, 0xbe, 0x2a, 0xb2, 0xf3, 0xbe,
  0xa4, 0xd0, 0xc1, 0xbe, 0x69, 0x2d, 0x1b, 0x3e, 0x02, 0xbb, 0x4b, 0xbe,
  0x14, 0x7a, 0xac, 0xbf, 0x77, 0x56, 0xad, 0x3d, 0xa4, 0xc4, 0x9a, 0xbd,
  0xee, 0xae, 0x17, 0x3f, 0x32, 0xad, 0x1c, 0x3f, 0x9d, 0x51, 0x30, 0x3e,
  0x7b, 0xe1, 0x0d, 0x3f, 0x9f, 0x52, 0xb4, 0xbe, 0xe6, 0x20, 0x52, 0x3f,
  0x88, 0xc6, 0xfd, 0x3c, 0x86, 0xa3, 0xe9, 0xbe, 0x07, 0xc3, 0xd2, 0x3c,
  0xc1, 0xac, 0x89, 0x3f, 0xd5, 0x0c, 0x0f, 0x3e, 0x06, 0x80, 0x2a, 0xbe,
  0x61, 0xcf, 0x6a, 0x3e, 0x79, 0x8a, 0x38, 0x3d, 0x7f, 0x72, 0x00, 0xbf,
  0x6b, 0x58, 0x36, 0xbf, 0x13, 0xf2, 0xba, 0xbe, 0x19, 0x2d, 0x31, 0xbe,
  0x50, 0xf8, 0x7a, 0xbe, 0x52, 0xe0, 0x47, 0x3e, 0xae, 0xcf, 0xb0, 0xbe,
  0xc7, 0x08, 0x4d, 0x3e, 0xfd, 0x44, 0xe9, 0x3c, 0xa0, 0xfa, 0x4b, 0x3c,
  0x8e, 0x28, 0x52, 0x3e, 0xf8, 0xec, 0xfa, 0x3d, 0x2f, 0x95, 0x2b, 0xbe,
  0xf4, 0xa8, 0xb1, 0xbe, 0xe2, 0x1a, 0x96, 0x3a, 0xc7, 0xfe, 0xa3, 0x3d,
  0x90, 0x51, 0xb4, 0xbe, 0x12, 0xa4, 0xff, 0xbe, 0x47, 0xff, 0xb3, 0xbc,
  0x77, 0x8f, 0x69, 0xbe, 0x47, 0x1d, 0xad, 0xbe, 0xac, 0xbd, 0x21, 0x3f,
  0xe5, 0x50, 0x89, 0xbe, 0xd4, 0xdb, 0xa1, 0xbe, 0x20, 0x91, 0x95, 0xbd,
  0x34, 0xd4, 0x22, 0xbf, 0xab, 0x14, 0x20, 0x3d, 0x36, 0x5e, 0x21, 0x3e,
  0x89, 0x94, 0x03, 0xbe, 0x7b, 0xec, 0x32, 0xbe, 0xca, 0x93, 0x83, 0xbc,
  0x89, 0x7f, 0xbc, 0xbe, 0xa1, 0x84, 0x77, 0xbe, 0xbb, 0xb2, 0xd0, 0xbe,
  0xa0, 0xc5, 0x71, 0xbe, 0xaa, 0x87, 0x40, 0xbf, 0x68, 0x37, 0x82, 0x3e,
  0xa5, 0x3a, 0xb2, 0xbd, 0x47, 0x09, 0x95, 0xbe, 0xcb, 0xd7, 0x2e, 0x3f,
  0x95, 0xeb, 0x03, 0x3e, 0xfe, 0xbb, 0x89, 0xbe, 0x2c, 0x85, 0x4a, 0x3e,
  0x2e, 0x85, 0x10, 0x3f, 0x35, 0x15, 0xd3, 0x3d, 0x51, 0x89, 0x92, 0x3d,
  0x0d, 0x2f, 0xe0, 0x3e, 0x55, 0xdd, 0xcf, 0x3d, 0xb9, 0xd3, 0x3a, 0xbe,
  0x18, 0x16, 0xd8, 0xbe, 0x72, 0x54, 0x42, 0xbe, 0x49, 0xdc, 0x58, 0xbd,
  0x01, 0x91, 0xf6, 0x3e, 0xc6, 0xb6, 0x9f, 0xbe, 0xde, 0x56, 0xae, 0xbe,
  0xfc, 0xe0, 0x94, 0x3e, 0x74, 0x26, 0xe3, 0x3d, 0x1a, 0x04, 0x5b, 0xbe,
  0x0d, 0x82, 0xab, 0xbd, 0x70, 0x89, 0x2e, 0x3e, 0xfa, 0xc5, 0xe1, 0xbb,
  0x23, 0x61, 0x8f, 0xbe, 0x24, 0xdc, 0x49, 0x3e, 0x17, 0x6a, 0x3e, 0x3e,
  0x49, 0x6d, 0xed, 0xbe, 0x2e, 0x0c, 0x9f, 0xbe, 0x9b, 0x52, 0x27, 0xbd,
  0xa8, 0x1d, 0x1e, 0xbe, 0x4b, 0xf1, 0xe0, 0x3e, 0x23, 0xee, 0x58, 0x3d,
  0x03, 0xcc, 0x0a, 0xbf, 0x28, 0x99, 0x61, 0x3e, 0xa2, 0x58, 0x87, 0xbe,
  0xd7, 0x65, 0x9d, 0xbe, 0xae, 0xa0, 0xb4, 0x3d, 0x65, 0x5b, 0xb9, 0x3e,
  0xf9, 0x34, 0xc4, 0x3d, 0x10, 0x33, 0x67, 0x3d, 0xc5, 0xc2, 0x01, 0xbf,
  0xad, 0x00, 0x6b, 0xbe, 0x7a, 0x68, 0x52, 0xbe, 0xe7, 0x18, 0x59, 0xbd,
  0x36, 0xf7, 0x17, 0x3d, 0xf1, 0xed, 0x95, 0xbe, 0xa7, 0x20, 0x9a, 0x3e,
  0x8e, 0xc1, 0xa0, 0xbb, 0x4d, 0x4f, 0xf4, 0xbd, 0x05, 0x8d, 0x2d, 0x3f,
  0x96, 0xab, 0x19, 0x3e, 0xf5, 0x79, 0x10, 0xbe, 0x26, 0xc8, 0x1a, 0x3e,
  0xf3, 0x87, 0x87, 0x3e, 0x24, 0xfb, 0x08, 0xbf, 0xd9, 0x1d, 0x8c, 0x3e,
  0x72, 0x23, 0x1b, 0xbf, 0xb3, 0x50, 0xb9, 0x3e, 0xd7, 0x21, 0x03, 0xbd,
  0x10, 0x28, 0x86, 0xbe, 0x1c, 0xe0, 0xa0, 0xbe, 0xa8, 0x79, 0x2c, 0x3a,
  0x35, 0xe7, 0x90, 0xbe, 0xf2, 0x78, 0x8f, 0x3e, 0xc7, 0xa0, 0x68, 0xbe,
  0x05, 0x47, 0x52, 0x3f, 0xdb, 0x14, 0x89, 0x3c, 0x4d, 0x23, 0xc5, 0x3d,
  0x56, 0x83, 0x65, 0x3e, 0x0f, 0x9f, 0x09, 0x3f, 0x57, 0x83, 0x66, 0xbe,
  0x02, 0xfd, 0x11, 0x3d, 0x2b, 0xba, 0x43, 0xbe, 0xc6, 0xfd, 0x0a, 0x3f,
  0xb2, 0x57, 0x06, 0x3e, 0x2e, 0x2b, 0xf3, 0x3d, 0x3c, 0x3e, 0xb3, 0x3d,
  0xf0, 0xff, 0xc5, 0x3d, 0xe1, 0xb5, 0x0d, 0x3f, 0xd1, 0xa7, 0x62, 0x3e,
  0x7e, 0x81, 0x92, 0xbe, 0x41, 0x44, 0x4f, 0x3f, 0xcb, 0x2e, 0x14, 0xbd,
  0x6f, 0x76, 0x0b, 0x3c, 0xff, 0x88, 0x8e, 0xba, 0xb2, 0x8b, 0x1d, 0x3f,
  0x22, 0xf1, 0x76, 0x3f, 0x90, 0x76, 0x42, 0x3e, 0xa0, 0xa4, 0xca, 0xbe,
  0x4c, 0x87, 0xd5, 0x3e, 0xf1, 0xe0, 0x5e, 0x3e, 0x23, 0x1b, 0xfe, 0xbe,
  0xf5, 0xb3, 0x0e, 0x3f, 0xe6, 0x0e, 0xd5, 0xbe, 0x9e, 0xf4, 0xff, 0xff,
  0x04, 0x00, 0x00, 0x00, 0x08, 0x00, 0x00, 0x00, 0x00, 0x00, 0x00, 0x00,
  0x00, 0x00, 0x00, 0x00, 0xb2, 0xf4, 0xff, 0xff, 0x04, 0x00, 0x00, 0x00,
  0x40, 0x02, 0x00, 0x00, 0xd3, 0x67, 0xed, 0x3e, 0xa1, 0x47, 0xb2, 0xbc,
  0x5c, 0xdc, 0xca, 0xbe, 0x65, 0xf1, 0xd6, 0x3e, 0x2b, 0xa3, 0x60, 0x3c,
  0x70, 0x10, 0x8d, 0x3c, 0xa6, 0x84, 0x52, 0xbf, 0xc9, 0x08, 0xf9, 0x3d,
  0x1e, 0x81, 0xeb, 0x3e, 0x05, 0xcc, 0xd9, 0xbe, 0x84, 0x09, 0x98, 0xbe,
  0xa7, 0x87, 0x81, 0xbf, 0xc7, 0x61, 0x8b, 0xbe, 0xff, 0x9b, 0x2a, 0x3e,
  0xa6, 0xe3, 0x5d, 0xbe, 0x96, 0x50, 0x8b, 0x3f, 0xc5, 0xb7, 0x17, 0x3f,
  0xf0, 0x06, 0x8a, 0x3e, 0x8a, 0x06, 0x38, 0xbd, 0x9d, 0x96, 0x1f, 0x3e,
  0x9c, 0x59, 0x27, 0xbf, 0x8e, 0x60, 0x9d, 0x3f, 0xcb, 0xe2, 0x39, 0xbe,
  0x9c, 0x47, 0x88, 0x3b, 0xcd, 0x7f, 0x95, 0x3e, 0xd8, 0x73, 0xad, 0xbd,
  0x52, 0x4d, 0x5f, 0xbf, 0x32, 0x2c, 0xdf, 0x3d, 0x8f, 0xae, 0xaa, 0xbe,
  0x0f, 0xc6, 0x79, 0x3d, 0xbc, 0x63, 0x23, 0x40, 0x5d, 0xe3, 0xe4, 0x3d,
  0x70, 0xf6, 0xf4, 0xbe, 0x47, 0xda, 0xe1, 0x3e, 0xbe, 0x84, 0xb8, 0xbe,
  0xc9, 0xf6, 0x18, 0x3f, 0x92, 0x73, 0x95, 0xbe, 0x5b, 0x43, 0xcc, 0x3e,
  0xdf, 0x06, 0xa8, 0xbd, 0xb9, 0xc5, 0x8f, 0xbe, 0x92, 0xee, 0x07, 0x3d,
  0x2b, 0x5d, 0xc1, 0x3d, 0x03, 0x5f, 0x8e, 0xbf, 0x81, 0x23, 0x5c, 0xbf,
  0x17, 0xec, 0x57, 0xbe, 0x82, 0xfc, 0xb0, 0xbe, 0xa6, 0x53, 0x59, 0xbe,
  0x62, 0xbd, 0x84, 0x3f, 0x88, 0x19, 0xa3, 0xbd, 0x76, 0x6e, 0x2b, 0xbf,
  0x84, 0xaa, 0x75, 0x3f, 0xfd, 0xa5, 0x04, 0xbe, 0x08, 0x0c, 0xaf, 0xbd,
  0x7b, 0xcd, 0xc5, 0xbe, 0x9c, 0x92, 0x37, 0x3f, 0x19, 0xff, 0x5c, 0x3f,
  0x04, 0xf1, 0x19, 0x3f, 0xbf, 0x57, 0xee, 0x3d, 0xb8, 0xa1, 0x1e, 0xbf,
  0x31, 0x3e, 0xcd, 0xbd, 0xc1, 0x7e, 0xdf, 0xbe, 0xdc, 0xe9, 0x62, 0xbe,
  0x61, 0xb6, 0xa8, 0xbd, 0xab, 0xa4, 0x9f, 0x3e, 0xb3, 0xcd, 0xb5, 0xbe,
  0x07, 0xec, 0x80, 0xbd, 0x71, 0xfb, 0x2a, 0x3f, 0xad, 0x6b, 0xe0, 0xbe,
  0x30, 0x13, 0xe4, 0xbe, 0x74, 0x61, 0x82, 0x3f, 0x8f, 0xc7, 0x50, 0xbd,
  0xed, 0x94, 0x06, 0xbf, 0x3a, 0x0b, 0xd8, 0xbe, 0x20, 0x91, 0x3f, 0x3e,
  0xf8, 0xef, 0x41, 0x3e, 0xc9, 0x6b, 0x45, 0xbf, 0x5e, 0x44, 0x07, 0xbe,
  0xa1, 0xa8, 0x2c, 0x3d, 0xde, 0x58, 0xbe, 0x3e, 0xec, 0x0e, 0x73, 0xbe,
  0xf2, 0x67, 0x8e, 0x3f, 0xe7, 0xe4, 0x55, 0x3e, 0x96, 0xd7, 0x52, 0xbf,
  0x66, 0xfe, 0xd5, 0xbd, 0x75, 0x32, 0x4a, 0xbd, 0xbc, 0xaf, 0x52, 0xbe,
  0x08, 0x1b, 0x2c, 0x3f, 0x8b, 0x21, 0x1f, 0x3f, 0xe5, 0x7a, 0xb2, 0x3e,
  0xd7, 0x80, 0x50, 0x3f, 0x0b, 0xe2, 0x40, 0x3e, 0x49, 0xd0, 0x1b, 0xbe,
  0x17, 0x37, 0x5f, 0x3e, 0x30, 0xe5, 0x47, 0xbf, 0x20, 0x30, 0xa8, 0xbe,
  0x2e, 0xd9, 0x6b, 0xbd, 0x71, 0x08, 0xd5, 0x3e, 0xe8, 0xbc, 0x3d, 0x3f,
  0x69, 0x9d, 0x5e, 0xbe, 0x1c, 0x5c, 0x4a, 0xbe, 0xa9, 0xac, 0x6d, 0xbe,
  0x16, 0x9f, 0x54, 0x3d, 0xaf, 0x5e, 0xda, 0xbe, 0x03, 0x92, 0x0d, 0xbe,
  0x2f, 0xb2, 0x4e, 0x3f, 0x2b, 0x2d, 0xf1, 0xbe, 0x3e, 0x31, 0x0d, 0x3f,
  0xaa, 0x5c, 0x6b, 0x3f, 0x11, 0xbc, 0xcb, 0xbe, 0xd2, 0x4d, 0x0f, 0xbf,
  0xd8, 0x2a, 0xbf, 0xbf, 0x59, 0xe4, 0xb4, 0xbe, 0x8d, 0x31, 0x9f, 0x3e,
  0x3c, 0xe1, 0x84, 0x3e, 0xbc, 0xc3, 0x35, 0x3e, 0xc7, 0xb8, 0xf7, 0xbd,
  0x56, 0x5a, 0x92, 0x3e, 0xf5, 0x0a, 0x80, 0x3e, 0x2b, 0x2e, 0x45, 0x3f,
  0x5a, 0x64, 0xb7, 0x3e, 0x40, 0x42, 0x8e, 0x3e, 0x3c, 0x6d, 0x8b, 0x3e,
  0x74, 0x90, 0x30, 0xbf, 0x1a, 0x03, 0xe8, 0x3d, 0xd5, 0x3f, 0x25, 0xbf,
  0xae, 0x2c, 0x0a, 0xbf, 0xbb, 0xa4, 0xf2, 0xbe, 0xb4, 0xac, 0x14, 0xbe,
  0x88, 0x5a, 0xbf, 0x3e, 0xba, 0x1d, 0xf0, 0xbe, 0x33, 0x56, 0x07, 0xbd,
  0x46, 0xe1, 0x73, 0x3f, 0xd5, 0xf1, 0x70, 0xbd, 0xec, 0xbe, 0x02, 0xbc,
  0x8d, 0x87, 0xc6, 0x3e, 0x2c, 0x2f, 0x35, 0xbe, 0x16, 0x1d, 0xfa, 0x3e,
  0x73, 0xd6, 0x9f, 0x3f, 0x13, 0x51, 0x3d, 0xbf, 0x8c, 0xbd, 0x53, 0xbd,
  0xe5, 0x95, 0x7b, 0xbd, 0x9e, 0xb7, 0x53, 0xbe, 0x96, 0x28, 0x49, 0x3d,
  0xe8, 0xa0, 0x64, 0xbe, 0xfe, 0xf6, 0xff, 0xff, 0x04, 0x00, 0x00, 0x00,
  0x40, 0x00, 0x00, 0x00, 0x00, 0x00, 0x00, 0x00, 0x00, 0x00, 0x00, 0x00,
  0x00, 0x00, 0x00, 0x00, 0x00, 0x00, 0x00, 0x00, 0x00, 0x00, 0x00, 0x00,
  0x00, 0x00, 0x00, 0x00, 0x00, 0x00, 0x00, 0x00, 0x00, 0x00, 0x00, 0x00,
  0x00, 0x00, 0x00, 0x00, 0x00, 0x00, 0x00, 0x00, 0x00, 0x00, 0x00, 0x00,
  0x00, 0x00, 0x00, 0x00, 0x00, 0x00, 0x00, 0x00, 0x00, 0x00, 0x00, 0x00,
  0x00, 0x00, 0x00, 0x00, 0x00, 0x00, 0x00, 0x00, 0x4a, 0xf7, 0xff, 0xff,
  0x04, 0x00, 0x00, 0x00, 0x80, 0x00, 0x00, 0x00, 0x53, 0x99, 0xfa, 0x3e,
  0x9e, 0x3f, 0xc8, 0x3f, 0x2c, 0xa0, 0x24, 0xbf, 0x4c, 0x18, 0x97, 0x3f,
  0x6c, 0x29, 0x12, 0x3f, 0x16, 0xbd, 0x48, 0x3f, 0xaf, 0x88, 0x53, 0x3f,
  0x5e, 0x9c, 0xd8, 0xbf, 0x6d, 0x67, 0x1c, 0xbf, 0x3d, 0xe0, 0xc3, 0xbe,
  0x88, 0xac, 0x00, 0xc0, 0x46, 0xf4, 0x91, 0x3f, 0x4e, 0xe7, 0xc5, 0xbd,
  0xea, 0x60, 0xa9, 0xbf, 0x61, 0xcd, 0xbb, 0xbd, 0x85, 0xb3, 0xbc, 0x3f,
  0x02, 0x1d, 0x35, 0xbf, 0xe2, 0x00, 0x41, 0xc0, 0x4e, 0x04, 0x76, 0x3d,
  0x76, 0xfb, 0xad, 0xbe, 0xfd, 0xc4, 0x6c, 0xbf, 0xe1, 0x9b, 0x91, 0xbf,
  0x8f, 0xd5, 0x53, 0xbf, 0x6b, 0x78, 0xad, 0x3f, 0x4f, 0x15, 0xdb, 0x3f,
  0x7e, 0x2d, 0x76, 0x3f, 0x29, 0x95, 0x58, 0x3e, 0xd3, 0xea, 0x6f, 0xbe,
  0x8a, 0x7b, 0xc6, 0x3d, 0x12, 0x43, 0x99, 0x3f, 0x63, 0xfe, 0x2f, 0x3f,
  0xfa, 0xff, 0xa7, 0xbf, 0xd6, 0xf7, 0xff, 0xff, 0x04, 0x00, 0x00, 0x00,
  0x08, 0x00, 0x00, 0x00, 0x48, 0xdb, 0x6f, 0x3f, 0x7f, 0xf3, 0x7b, 0xbf,
  0xa8, 0xbf, 0xff, 0xff, 0xac, 0xbf, 0xff, 0xff, 0x0f, 0x00, 0x00, 0x00,
  0x4d, 0x4c, 0x49, 0x52, 0x20, 0x43, 0x6f, 0x6e, 0x76, 0x65, 0x72, 0x74,
  0x65, 0x64, 0x2e, 0x00, 0x01, 0x00, 0x00, 0x00, 0x14, 0x00, 0x00, 0x00,
  0x00, 0x00, 0x0e, 0x00, 0x18, 0x00, 0x14, 0x00, 0x10, 0x00, 0x0c, 0x00,
  0x08, 0x00, 0x04, 0x00, 0x0e, 0x00, 0x00, 0x00, 0x14, 0x00, 0x00, 0x00,
  0x1c, 0x00, 0x00, 0x00, 0x94, 0x09, 0x00, 0x00, 0x98, 0x09, 0x00, 0x00,
  0x9c, 0x09, 0x00, 0x00, 0x04, 0x00, 0x00, 0x00, 0x6d, 0x61, 0x69, 0x6e,
  0x00, 0x00, 0x00, 0x00, 0x29, 0x00, 0x00, 0x00, 0x4c, 0x09, 0x00, 0x00,
  0x08, 0x09, 0x00, 0x00, 0xc4, 0x08, 0x00, 0x00, 0x78, 0x08, 0x00, 0x00,
  0x44, 0x08, 0x00, 0x00, 0x04, 0x08, 0x00, 0x00, 0xc4, 0x07, 0x00, 0x00,
  0x84, 0x07, 0x00, 0x00, 0x50, 0x07, 0x00, 0x00, 0x18, 0x07, 0x00, 0x00,
  0xc8, 0x06, 0x00, 0x00, 0x94, 0x06, 0x00, 0x00, 0x40, 0x06, 0x00, 0x00,
  0x0c, 0x06, 0x00, 0x00, 0xd4, 0x05, 0x00, 0x00, 0x94, 0x05, 0x00, 0x00,
  0x5c, 0x05, 0x00, 0x00, 0x28, 0x05, 0x00, 0x00, 0xf0, 0x04, 0x00, 0x00,
  0xac, 0x04, 0x00, 0x00, 0x78, 0x04, 0x00, 0x00, 0x34, 0x04, 0x00, 0x00,
  0x00, 0x04, 0x00, 0x00, 0xc8, 0x03, 0x00, 0x00, 0x88, 0x03, 0x00, 0x00,
  0x50, 0x03, 0x00, 0x00, 0x1c, 0x03, 0x00, 0x00, 0xe4, 0x02, 0x00, 0x00,
  0xa0, 0x02, 0x00, 0x00, 0x6c, 0x02, 0x00, 0x00, 0x28, 0x02, 0x00, 0x00,
  0xf4, 0x01, 0x00, 0x00, 0xbc, 0x01, 0x00, 0x00, 0x7c, 0x01, 0x00, 0x00,
  0x44, 0x01, 0x00, 0x00, 0x10, 0x01, 0x00, 0x00, 0xd8, 0x00, 0x00, 0x00,
  0xa4, 0x00, 0x00, 0x00, 0x6c, 0x00, 0x00, 0x00, 0x34, 0x00, 0x00, 0x00,
  0x10, 0x00, 0x00, 0x00, 0x00, 0x00, 0x0a, 0x00, 0x10, 0x00, 0x0c, 0x00,
  0x08, 0x00, 0x04, 0x00, 0x0a, 0x00, 0x00, 0x00, 0x0c, 0x00, 0x00, 0x00,
  0x10, 0x00, 0x00, 0x00, 0x09, 0x00, 0x00, 0x00, 0x01, 0x00, 0x00, 0x00,
  0x4f, 0x00, 0x00, 0x00, 0x01, 0x00, 0x00, 0x00, 0x4e, 0x00, 0x00, 0x00,
  0xd2, 0xf7, 0xff, 0xff, 0x14, 0x00, 0x00, 0x00, 0x00, 0x00, 0x00, 0x08,
  0x10, 0x00, 0x00, 0x00, 0x14, 0x00, 0x00, 0x00, 0x08, 0x00, 0x00, 0x00,
  0xec, 0xc0, 0xff, 0xff, 0x01, 0x00, 0x00, 0x00, 0x4e, 0x00, 0x00, 0x00,
  0x03, 0x00, 0x00, 0x00, 0x4d, 0x00, 0x00, 0x00, 0x02, 0x00, 0x00, 0x00,
  0x01, 0x00, 0x00, 0x00, 0x06, 0xf8, 0xff, 0xff, 0x14, 0x00, 0x00, 0x00,
  0x00, 0x00, 0x00, 0x08, 0x10, 0x00, 0x00, 0x00, 0x14, 0x00, 0x00, 0x00,
  0x08, 0x00, 0x00, 0x00, 0x20, 0xc1, 0xff, 0xff, 0x01, 0x00, 0x00, 0x00,
  0x4d, 0x00, 0x00, 0x00, 0x03, 0x00, 0x00, 0x00, 0x4c, 0x00, 0x00, 0x00,
  0x24, 0x00, 0x00, 0x00, 0xff, 0xff, 0xff, 0xff, 0x3a, 0xf8, 0xff, 0xff,
  0x14, 0x00, 0x00, 0x00, 0x00, 0x00, 0x00, 0x1b, 0x10, 0x00, 0x00, 0x00,
  0x14, 0x00, 0x00, 0x00, 0x07, 0x00, 0x00, 0x00, 0x54, 0xc1, 0xff, 0xff,
  0x01, 0x00, 0x00, 0x00, 0x4c, 0x00, 0x00, 0x00, 0x02, 0x00, 0x00, 0x00,
  0x4b, 0x00, 0x00, 0x00, 0x11, 0x00, 0x00, 0x00, 0x6a, 0xf8, 0xff, 0xff,
  0x14, 0x00, 0x00, 0x00, 0x00, 0x00, 0x00, 0x0b, 0x14, 0x00, 0x00, 0x00,
  0x18, 0x00, 0x00, 0x00, 0x02, 0x00, 0x00, 0x00, 0x4e, 0xf9, 0xff, 0xff,
  0x00, 0x00, 0x00, 0x01, 0x01, 0x00, 0x00, 0x00, 0x4b, 0x00, 0x00, 0x00,
  0x02, 0x00, 0x00, 0x00, 0x4a, 0x00, 0x00, 0x00, 0x22, 0x00, 0x00, 0x00,
  0x9e, 0xf8, 0xff, 0xff, 0x14, 0x00, 0x00, 0x00, 0x00, 0x00, 0x00, 0x15,
  0x10, 0x00, 0x00, 0x00, 0x14, 0x00, 0x00, 0x00, 0x01, 0x00, 0x00, 0x00,
  0xb8, 0xc1, 0xff, 0xff, 0x01, 0x00, 0x00, 0x00, 0x4a, 0x00, 0x00, 0x00,
  0x02, 0x00, 0x00, 0x00, 0x49, 0x00, 0x00, 0x00, 0x23, 0x00, 0x00, 0x00,
  0xce, 0xf8, 0xff, 0xff, 0x14, 0x00, 0x00, 0x00, 0x00, 0x00, 0x00, 0x0a,
  0x14, 0x00, 0x00, 0x00, 0x18, 0x00, 0x00, 0x00, 0x04, 0x00, 0x00, 0x00,
  0x2a, 0xfa, 0xff, 0xff, 0x03, 0x00, 0x00, 0x00, 0x01, 0x00, 0x00, 0x00,
  0x49, 0x00, 0x00, 0x00, 0x02, 0x00, 0x00, 0x00, 0x45, 0x00, 0x00, 0x00,
  0x48, 0x00, 0x00, 0x00, 0x02, 0xf9, 0xff, 0xff, 0x14, 0x00, 0x00, 0x00,
